{
  "version": "1.0",
  "truncation": null,
  "padding": null,
  "added_tokens": [
    {
      "id": 0,
      "content": "[PAD]",
      "single_word": false,
      "lstrip": false,
      "rstrip": false,
      "normalized": false,
      "special": true
    },
    {
      "id": 1,
      "content": "[UNK]",
      "single_word": false,
      "lstrip": false,
      "rstrip": false,
      "normalized": false,
      "special": true
    },
    {
      "id": 2,
      "content": "[SOS]",
      "single_word": false,
      "lstrip": false,
      "rstrip": false,
      "normalized": false,
      "special": true
    },
    {
      "id": 3,
      "content": "[EOS]",
      "single_word": false,
      "lstrip": false,
      "rstrip": false,
      "normalized": false,
      "special": true
    }
  ],
  "normalizer": {
    "type": "Sequence",
    "normalizers": [
      {
        "type": "NFKC"
      }
    ]
  },
  "pre_tokenizer": {
    "type": "Sequence",
    "pretokenizers": [
      {
        "type": "Punctuation",
        "behavior": "Isolated"
      },
      {
        "type": "Whitespace"
      }
    ]
  },
  "post_processor": {
    "type": "TemplateProcessing",
    "single": [
      {
        "SpecialToken": {
          "id": "[SOS]",
          "type_id": 0
        }
      },
      {
        "Sequence": {
          "id": "A",
          "type_id": 0
        }
      },
      {
        "SpecialToken": {
          "id": "[EOS]",
          "type_id": 0
        }
      }
    ],
    "pair": [
      {
        "SpecialToken": {
          "id": "[SOS]",
          "type_id": 0
        }
      },
      {
        "Sequence": {
          "id": "A",
          "type_id": 0
        }
      },
      {
        "SpecialToken": {
          "id": "[EOS]",
          "type_id": 0
        }
      },
      {
        "Sequence": {
          "id": "B",
          "type_id": 0
        }
      },
      {
        "SpecialToken": {
          "id": "[EOS]",
          "type_id": 0
        }
      }
    ],
    "special_tokens": {
      "[EOS]": {
        "id": "[EOS]",
        "ids": [
          3
        ],
        "tokens": [
          "[EOS]"
        ]
      },
      "[SOS]": {
        "id": "[SOS]",
        "ids": [
          2
        ],
        "tokens": [
          "[SOS]"
        ]
      }
    }
  },
  "decoder": null,
  "model": {
    "type": "BPE",
    "dropout": null,
    "unk_token": "[UNK]",
    "continuing_subword_prefix": "##",
    "end_of_word_suffix": null,
    "fuse_unk": false,
    "byte_fallback": false,
    "ignore_merges": false,
    "vocab": {
      "[PAD]": 0,
      "[UNK]": 1,
      "[SOS]": 2,
      "[EOS]": 3,
      "!": 4,
      "\"": 5,
      "#": 6,
      "$": 7,
      "%": 8,
      "&": 9,
      "'": 10,
      "(": 11,
      ")": 12,
      "*": 13,
      "+": 14,
      ",": 15,
      "-": 16,
      ".": 17,
      "/": 18,
      "0": 19,
      "1": 20,
      "2": 21,
      "3": 22,
      "4": 23,
      "5": 24,
      "6": 25,
      "7": 26,
      "8": 27,
      "9": 28,
      ":": 29,
      ";": 30,
      "<": 31,
      "=": 32,
      ">": 33,
      "?": 34,
      "@": 35,
      "A": 36,
      "B": 37,
      "C": 38,
      "D": 39,
      "E": 40,
      "F": 41,
      "G": 42,
      "H": 43,
      "I": 44,
      "J": 45,
      "K": 46,
      "L": 47,
      "M": 48,
      "N": 49,
      "O": 50,
      "P": 51,
      "Q": 52,
      "R": 53,
      "S": 54,
      "T": 55,
      "U": 56,
      "V": 57,
      "W": 58,
      "X": 59,
      "Y": 60,
      "Z": 61,
      "[": 62,
      "\\": 63,
      "]": 64,
      "^": 65,
      "_": 66,
      "`": 67,
      "a": 68,
      "b": 69,
      "c": 70,
      "d": 71,
      "e": 72,
      "f": 73,
      "g": 74,
      "h": 75,
      "i": 76,
      "j": 77,
      "k": 78,
      "l": 79,
      "m": 80,
      "n": 81,
      "o": 82,
      "p": 83,
      "q": 84,
      "r": 85,
      "s": 86,
      "t": 87,
      "u": 88,
      "v": 89,
      "w": 90,
      "x": 91,
      "y": 92,
      "z": 93,
      "{": 94,
      "|": 95,
      "}": 96,
      "~": 97,
      "¡": 98,
      "¢": 99,
      "£": 100,
      "¤": 101,
      "¥": 102,
      "¦": 103,
      "§": 104,
      "¨": 105,
      "©": 106,
      "ª": 107,
      "«": 108,
      "¬": 109,
      "®": 110,
      "¯": 111,
      "°": 112,
      "±": 113,
      "²": 114,
      "³": 115,
      "´": 116,
      "µ": 117,
      "¶": 118,
      "·": 119,
      "¸": 120,
      "¹": 121,
      "º": 122,
      "»": 123,
      "¼": 124,
      "½": 125,
      "¾": 126,
      "¿": 127,
      "À": 128,
      "Á": 129,
      "Â": 130,
      "Ã": 131,
      "Ä": 132,
      "Å": 133,
      "Æ": 134,
      "Ç": 135,
      "È": 136,
      "É": 137,
      "Ê": 138,
      "Ë": 139,
      "Ì": 140,
      "Í": 141,
      "Î": 142,
      "Ï": 143,
      "Ð": 144,
      "Ñ": 145,
      "Ò": 146,
      "Ó": 147,
      "Ô": 148,
      "Õ": 149,
      "Ö": 150,
      "×": 151,
      "Ø": 152,
      "Ù": 153,
      "Ú": 154,
      "Û": 155,
      "Ü": 156,
      "Ý": 157,
      "Þ": 158,
      "ß": 159,
      "à": 160,
      "á": 161,
      "â": 162,
      "ã": 163,
      "ä": 164,
      "å": 165,
      "æ": 166,
      "ç": 167,
      "è": 168,
      "é": 169,
      "ê": 170,
      "ë": 171,
      "ì": 172,
      "í": 173,
      "î": 174,
      "ï": 175,
      "ð": 176,
      "ñ": 177,
      "ò": 178,
      "ó": 179,
      "ô": 180,
      "õ": 181,
      "ö": 182,
      "÷": 183,
      "ø": 184,
      "ù": 185,
      "ú": 186,
      "û": 187,
      "ü": 188,
      "ý": 189,
      "þ": 190,
      "ÿ": 191,
      "Ā": 192,
      "ā": 193,
      "Ă": 194,
      "ă": 195,
      "Ą": 196,
      "ą": 197,
      "Ć": 198,
      "ć": 199,
      "Ĉ": 200,
      "ĉ": 201,
      "Ċ": 202,
      "ċ": 203,
      "Č": 204,
      "č": 205,
      "Ď": 206,
      "ď": 207,
      "Đ": 208,
      "đ": 209,
      "Ē": 210,
      "ē": 211,
      "Ĕ": 212,
      "ĕ": 213,
      "Ė": 214,
      "ė": 215,
      "Ę": 216,
      "ę": 217,
      "Ě": 218,
      "ě": 219,
      "Ĝ": 220,
      "ĝ": 221,
      "Ğ": 222,
      "ğ": 223,
      "Ġ": 224,
      "ġ": 225,
      "Ģ": 226,
      "ģ": 227,
      "Ĥ": 228,
      "ĥ": 229,
      "Ħ": 230,
      "ħ": 231,
      "Ĩ": 232,
      "ĩ": 233,
      "Ī": 234,
      "ī": 235,
      "Ĭ": 236,
      "ĭ": 237,
      "Į": 238,
      "į": 239,
      "İ": 240,
      "ı": 241,
      "Ĳ": 242,
      "ĳ": 243,
      "Ĵ": 244,
      "ĵ": 245,
      "Ķ": 246,
      "ķ": 247,
      "ĸ": 248,
      "Ĺ": 249,
      "ĺ": 250,
      "Ļ": 251,
      "ļ": 252,
      "Ľ": 253,
      "ľ": 254,
      "Ŀ": 255,
      "ŀ": 256,
      "Ł": 257,
      "ł": 258,
      "Ń": 259,
      "、": 260,
      "。": 261,
      "一": 262,
      "三": 263,
      "上": 264,
      "下": 265,
      "不": 266,
      "且": 267,
      "两": 268,
      "个": 269,
      "中": 270,
      "主": 271,
      "久": 272,
      "之": 273,
      "乏": 274,
      "乐": 275,
      "亚": 276,
      "交": 277,
      "亮": 278,
      "人": 279,
      "仅": 280,
      "代": 281,
      "以": 282,
      "仰": 283,
      "休": 284,
      "优": 285,
      "伤": 286,
      "伸": 287,
      "位": 288,
      "低": 289,
      "住": 290,
      "体": 291,
      "作": 292,
      "侧": 293,
      "便": 294,
      "促": 295,
      "保": 296,
      "修": 297,
      "做": 298,
      "偶": 299,
      "充": 300,
      "光": 301,
      "克": 302,
      "免": 303,
      "入": 304,
      "公": 305,
      "关": 306,
      "具": 307,
      "养": 308,
      "内": 309,
      "再": 310,
      "冥": 311,
      "冬": 312,
      "冰": 313,
      "冷": 314,
      "凉": 315,
      "减": 316,
      "出": 317,
      "分": 318,
      "划": 319,
      "利": 320,
      "制": 321,
      "刷": 322,
      "刺": 323,
      "剂": 324,
      "前": 325,
      "剩": 326,
      "力": 327,
      "功": 328,
      "加": 329,
      "动": 330,
      "助": 331,
      "劳": 332,
      "勺": 333,
      "勾": 334,
      "包": 335,
      "化": 336,
      "升": 337,
      "午": 338,
      "半": 339,
      "单": 340,
      "卖": 341,
      "南": 342,
      "卜": 343,
      "卧": 344,
      "卫": 345,
      "压": 346,
      "原": 347,
      "参": 348,
      "及": 349,
      "友": 350,
      "双": 351,
      "反": 352,
      "发": 353,
      "受": 354,
      "口": 355,
      "叫": 356,
      "可": 357,
      "右": 358,
      "叶": 359,
      "吃": 360,
      "各": 361,
      "合": 362,
      "后": 363,
      "向": 364,
      "含": 365,
      "听": 366,
      "吸": 367,
      "吹": 368,
      "周": 369,
      "味": 370,
      "呼": 371,
      "咀": 372,
      "和": 373,
      "咖": 374,
      "咙": 375,
      "咬": 376,
      "咸": 377,
      "咽": 378,
      "品": 379,
      "商": 380,
      "啡": 381,
      "喉": 382,
      "喊": 383,
      "喝": 384,
      "嗓": 385,
      "嚼": 386,
      "囊": 387,
      "回": 388,
      "因": 389,
      "困": 390,
      "圆": 391,
      "在": 392,
      "均": 393,
      "坐": 394,
      "坚": 395,
      "垫": 396,
      "境": 397,
      "墙": 398,
      "增": 399,
      "声": 400,
      "处": 401,
      "备": 402,
      "复": 403,
      "外": 404,
      "多": 405,
      "夜": 406,
      "大": 407,
      "天": 408,
      "太": 409,
      "失": 410,
      "头": 411,
      "夹": 412,
      "奶": 413,
      "如": 414,
      "姜": 415,
      "姿": 416,
      "子": 417,
      "孔": 418,
      "字": 419,
      "完": 420,
      "定": 421,
      "室": 422,
      "宫": 423,
      "宵": 424,
      "家": 425,
      "容": 426,
      "宽": 427,
      "密": 428,
      "对": 429,
      "导": 430,
      "将": 431,
      "小": 432,
      "少": 433,
      "尔": 434,
      "尿": 435,
      "屏": 436,
      "展": 437,
      "山": 438,
      "崴": 439,
      "工": 440,
      "左": 441,
      "差": 442,
      "巾": 443,
      "帘": 444,
      "带": 445,
      "常": 446,
      "幕": 447,
      "干": 448,
      "平": 449,
      "年": 450,
      "序": 451,
      "底": 452,
      "度": 453,
      "建": 454,
      "开": 455,
      "异": 456,
      "式": 457,
      "张": 458,
      "弱": 459,
      "强": 460,
      "很": 461,
      "循": 462,
      "微": 463,
      "心": 464,
      "忆": 465,
      "快": 466,
      "急": 467,
      "性": 468,
      "恢": 469,
      "息": 470,
      "情": 471,
      "想": 472,
      "意": 473,
      "感": 474,
      "慌": 475,
      "慢": 476,
      "憋": 477,
      "憩": 478,
      "戒": 479,
      "或": 480,
      "戴": 481,
      "房": 482,
      "扇": 483,
      "手": 484,
      "把": 485,
      "抗": 486,
      "护": 487,
      "抬": 488,
      "抹": 489,
      "担": 490,
      "拉": 491,
      "择": 492,
      "拭": 493,
      "持": 494,
      "按": 495,
      "挖": 496,
      "挡": 497,
      "损": 498,
      "换": 499,
      "掉": 500,
      "掏": 501,
      "排": 502,
      "揉": 503,
      "搓": 504,
      "搭": 505,
      "摄": 506,
      "摇": 507,
      "摩": 508,
      "操": 509,
      "收": 510,
      "改": 511,
      "放": 512,
      "散": 513,
      "数": 514,
      "整": 515,
      "敷": 516,
      "斑": 517,
      "料": 518,
      "断": 519,
      "新": 520,
      "方": 521,
      "无": 522,
      "早": 523,
      "时": 524,
      "明": 525,
      "易": 526,
      "晒": 527,
      "晕": 528,
      "晚": 529,
      "晨": 530,
      "智": 531,
      "暗": 532,
      "曲": 533,
      "替": 534,
      "有": 535,
      "朋": 536,
      "期": 537,
      "朵": 538,
      "机": 539,
      "杞": 540,
      "条": 541,
      "杯": 542,
      "松": 543,
      "板": 544,
      "枕": 545,
      "果": 546,
      "枣": 547,
      "枯": 548,
      "枸": 549,
      "染": 550,
      "标": 551,
      "核": 552,
      "根": 553,
      "桂": 554,
      "桃": 555,
      "桥": 556,
      "梨": 557,
      "棉": 558,
      "椎": 559,
      "椒": 560,
      "椰": 561,
      "模": 562,
      "次": 563,
      "正": 564,
      "步": 565,
      "每": 566,
      "毛": 567,
      "毯": 568,
      "气": 569,
      "氟": 570,
      "氧": 571,
      "水": 572,
      "汤": 573,
      "沉": 574,
      "油": 575,
      "泉": 576,
      "泌": 577,
      "泡": 578,
      "波": 579,
      "泪": 580,
      "泻": 581,
      "洁": 582,
      "洗": 583,
      "津": 584,
      "活": 585,
      "流": 586,
      "测": 587,
      "浮": 588,
      "海": 589,
      "涂": 590,
      "涌": 591,
      "润": 592,
      "液": 593,
      "淋": 594,
      "淘": 595,
      "淡": 596,
      "深": 597,
      "清": 598,
      "渐": 599,
      "温": 600,
      "湿": 601,
      "滋": 602,
      "滤": 603,
      "滴": 604,
      "漱": 605,
      "激": 606,
      "火": 607,
      "灼": 608,
      "炉": 609,
      "炎": 610,
      "炖": 611,
      "炭": 612,
      "炸": 613,
      "点": 614,
      "烤": 615,
      "烧": 616,
      "烫": 617,
      "热": 618,
      "烹": 619,
      "焦": 620,
      "煮": 621,
      "熬": 622,
      "燕": 623,
      "片": 624,
      "牙": 625,
      "牛": 626,
      "物": 627,
      "状": 628,
      "独": 629,
      "猫": 630,
      "率": 631,
      "玉": 632,
      "玫": 633,
      "环": 634,
      "理": 635,
      "瑰": 636,
      "瓜": 637,
      "甘": 638,
      "甜": 639,
      "生": 640,
      "用": 641,
      "电": 642,
      "畅": 643,
      "留": 644,
      "番": 645,
      "疏": 646,
      "疲": 647,
      "病": 648,
      "症": 649,
      "痒": 650,
      "痛": 651,
      "痰": 652,
      "瘙": 653,
      "瘫": 654,
      "癌": 655,
      "白": 656,
      "的": 657,
      "皮": 658,
      "益": 659,
      "盐": 660,
      "监": 661,
      "盖": 662,
      "目": 663,
      "直": 664,
      "看": 665,
      "眠": 666,
      "眨": 667,
      "眼": 668,
      "着": 669,
      "睛": 670,
      "睡": 671,
      "砂": 672,
      "硝": 673,
      "碗": 674,
      "碳": 675,
      "磨": 676,
      "社": 677,
      "祛": 678,
      "神": 679,
      "离": 680,
      "秘": 681,
      "称": 682,
      "穴": 683,
      "空": 684,
      "穿": 685,
      "窍": 686,
      "窗": 687,
      "等": 688,
      "签": 689,
      "管": 690,
      "米": 691,
      "粗": 692,
      "粥": 693,
      "精": 694,
      "糖": 695,
      "糙": 696,
      "素": 697,
      "紧": 698,
      "繁": 699,
      "红": 700,
      "纤": 701,
      "纯": 702,
      "练": 703,
      "细": 704,
      "经": 705,
      "结": 706,
      "络": 707,
      "绪": 708,
      "维": 709,
      "缓": 710,
      "缩": 711,
      "缺": 712,
      "网": 713,
      "羊": 714,
      "群": 715,
      "耳": 716,
      "聊": 717,
      "肉": 718,
      "肌": 719,
      "肚": 720,
      "肝": 721,
      "肠": 722,
      "肢": 723,
      "肤": 724,
      "肥": 725,
      "肩": 726,
      "肪": 727,
      "肺": 728,
      "肾": 729,
      "肿": 730,
      "胃": 731,
      "胆": 732,
      "背": 733,
      "胖": 734,
      "胱": 735,
      "能": 736,
      "脂": 737,
      "脉": 738,
      "脏": 739,
      "脐": 740,
      "脑": 741,
      "脚": 742,
      "脸": 743,
      "脾": 744,
      "腌": 745,
      "腐": 746,
      "腔": 747,
      "腰": 748,
      "腹": 749,
      "腻": 750,
      "腿": 751,
      "膀": 752,
      "膏": 753,
      "膜": 754,
      "膳": 755,
      "臀": 756,
      "自": 757,
      "至": 758,
      "致": 759,
      "舒": 760,
      "色": 761,
      "节": 762,
      "花": 763,
      "芹": 764,
      "若": 765,
      "英": 766,
      "苹": 767,
      "茄": 768,
      "茶": 769,
      "药": 770,
      "莓": 771,
      "菊": 772,
      "菌": 773,
      "菜": 774,
      "菠": 775,
      "萝": 776,
      "营": 777,
      "落": 778,
      "蒲": 779,
      "蒸": 780,
      "蓝": 781,
      "蔬": 782,
      "薄": 783,
      "薯": 784,
      "虑": 785,
      "蛀": 786,
      "蛋": 787,
      "血": 788,
      "衡": 789,
      "衣": 790,
      "补": 791,
      "被": 792,
      "装": 793,
      "裤": 794,
      "规": 795,
      "视": 796,
      "觉": 797,
      "解": 798,
      "训": 799,
      "议": 800,
      "记": 801,
      "设": 802,
      "证": 803,
      "试": 804,
      "话": 805,
      "说": 806,
      "调": 807,
      "豆": 808,
      "负": 809,
      "质": 810,
      "走": 811,
      "赶": 812,
      "起": 813,
      "超": 814,
      "足": 815,
      "跑": 816,
      "距": 817,
      "跟": 818,
      "路": 819,
      "踮": 820,
      "身": 821,
      "轻": 822,
      "辛": 823,
      "辣": 824,
      "边": 825,
      "过": 826,
      "运": 827,
      "进": 828,
      "迫": 829,
      "适": 830,
      "选": 831,
      "通": 832,
      "道": 833,
      "避": 834,
      "郁": 835,
      "部": 836,
      "配": 837,
      "酒": 838,
      "酯": 839,
      "酸": 840,
      "采": 841,
      "重": 842,
      "量": 843,
      "钟": 844,
      "锅": 845,
      "长": 846,
      "闭": 847,
      "间": 848,
      "闷": 849,
      "防": 850,
      "阳": 851,
      "阴": 852,
      "附": 853,
      "陈": 854,
      "降": 855,
      "险": 856,
      "难": 857,
      "零": 858,
      "霜": 859,
      "露": 860,
      "静": 861,
      "靠": 862,
      "面": 863,
      "鞋": 864,
      "韭": 865,
      "音": 866,
      "顶": 867,
      "须": 868,
      "颈": 869,
      "颌": 870,
      "频": 871,
      "颗": 872,
      "颞": 873,
      "风": 874,
      "食": 875,
      "餐": 876,
      "饥": 877,
      "饪": 878,
      "饭": 879,
      "饮": 880,
      "饱": 881,
      "饿": 882,
      "骨": 883,
      "髓": 884,
      "高": 885,
      "鱼": 886,
      "鲜": 887,
      "鸡": 888,
      "麦": 889,
      "麻": 890,
      "黄": 891,
      "黏": 892,
      "齿": 893,
      "龋": 894,
      "##茶": 895,
      "##高": 896,
      "##糖": 897,
      "##油": 898,
      "##建": 899,
      "##议": 900,
      "##少": 901,
      "##喝": 902,
      "##自": 903,
      "##制": 904,
      "##奶": 905,
      "##用": 906,
      "##纯": 907,
      "##牛": 908,
      "##和": 909,
      "##量": 910,
      "##红": 911,
      "##不": 912,
      "##加": 913,
      "##搭": 914,
      "##配": 915,
      "##燕": 916,
      "##麦": 917,
      "##增": 918,
      "##饱": 919,
      "##腹": 920,
      "##感": 921,
      "##常": 922,
      "##吹": 923,
      "##空": 924,
      "##调": 925,
      "##盖": 926,
      "##被": 927,
      "##子": 928,
      "##部": 929,
      "##易": 930,
      "##着": 931,
      "##凉": 932,
      "##期": 933,
      "##看": 934,
      "##电": 935,
      "##屏": 936,
      "##幕": 937,
      "##眨": 938,
      "##眼": 939,
      "##次": 940,
      "##数": 941,
      "##减": 942,
      "##虑": 943,
      "##导": 944,
      "##致": 945,
      "##肝": 946,
      "##郁": 947,
      "##睡": 948,
      "##前": 949,
      "##冥": 950,
      "##想": 951,
      "##1": 952,
      "##0": 953,
      "##分": 954,
      "##钟": 955,
      "##每": 956,
      "##天": 957,
      "##玫": 958,
      "##瑰": 959,
      "##花": 960,
      "##疏": 961,
      "##理": 962,
      "##气": 963,
      "##合": 964,
      "##拉": 965,
      "##伸": 966,
      "##放": 967,
      "##松": 968,
      "##身": 969,
      "##心": 970,
      "##乏": 971,
      "##运": 972,
      "##动": 973,
      "##下": 974,
      "##肢": 975,
      "##水": 976,
      "##肿": 977,
      "##的": 978,
      "##食": 979,
      "##物": 980,
      "##周": 981,
      "##吃": 982,
      "##深": 983,
      "##海": 984,
      "##鱼": 985,
      "##降": 986,
      "##血": 987,
      "##脂": 988,
      "##社": 989,
      "##交": 990,
      "##情": 991,
      "##绪": 992,
      "##低": 993,
      "##落": 994,
      "##煮": 995,
      "##饭": 996,
      "##后": 997,
      "##小": 998,
      "##米": 999,
      "##粥": 1000,
      "##养": 1001,
      "##胃": 1002,
      "##戴": 1003,
      "##耳": 1004,
      "##机": 1005,
      "##伤": 1006,
      "##窍": 1007,
      "##超": 1008,
      "##过": 1009,
      "##时": 1010,
      "##音": 1011,
      "##6": 1012,
      "##可": 1013,
      "##按": 1014,
      "##揉": 1015,
      "##听": 1016,
      "##宫": 1017,
      "##穴": 1018,
      "##风": 1019,
      "##扇": 1020,
      "##直": 1021,
      "##头": 1022,
      "##痛": 1023,
      "##把": 1024,
      "##蓝": 1025,
      "##莓": 1026,
      "##补": 1027,
      "##脑": 1028,
      "##益": 1029,
      "##智": 1030,
      "##穿": 1031,
      "##紧": 1032,
      "##裤": 1033,
      "##腿": 1034,
      "##静": 1035,
      "##脉": 1036,
      "##曲": 1037,
      "##张": 1038,
      "##开": 1039,
      "##窗": 1040,
      "##通": 1041,
      "##室": 1042,
      "##内": 1043,
      "##缺": 1044,
      "##氧": 1045,
      "##力": 1046,
      "##大": 1047,
      "##经": 1048,
      "##焦": 1049,
      "##失": 1050,
      "##眠": 1051,
      "##繁": 1052,
      "##零": 1053,
      "##胆": 1054,
      "##囊": 1055,
      "##适": 1056,
      "##生": 1057,
      "##姜": 1058,
      "##枣": 1059,
      "##饮": 1060,
      "##跟": 1061,
      "##鞋": 1062,
      "##腰": 1063,
      "##椎": 1064,
      "##受": 1065,
      "##均": 1066,
      "##4": 1067,
      "##回": 1068,
      "##家": 1069,
      "##热": 1070,
      "##敷": 1071,
      "##做": 1072,
      "##猫": 1073,
      "##式": 1074,
      "##展": 1075,
      "##缓": 1076,
      "##解": 1077,
      "##肌": 1078,
      "##能": 1079,
      "##性": 1080,
      "##料": 1081,
      "##含": 1082,
      "##咖": 1083,
      "##啡": 1084,
      "##因": 1085,
      "##质": 1086,
      "##改": 1087,
      "##淡": 1088,
      "##盐": 1089,
      "##或": 1090,
      "##椰": 1091,
      "##充": 1092,
      "##避": 1093,
      "##免": 1094,
      "##慌": 1095,
      "##单": 1096,
      "##侧": 1097,
      "##觉": 1098,
      "##脸": 1099,
      "##浮": 1100,
      "##频": 1101,
      "##刷": 1102,
      "##手": 1103,
      "##入": 1104,
      "##困": 1105,
      "##难": 1106,
      "##尿": 1107,
      "##肾": 1108,
      "##有": 1109,
      "##意": 1110,
      "##及": 1111,
      "##排": 1112,
      "##出": 1113,
      "##玉": 1114,
      "##须": 1115,
      "##利": 1116,
      "##淋": 1117,
      "##久": 1118,
      "##坐": 1119,
      "##压": 1120,
      "##迫": 1121,
      "##膀": 1122,
      "##胱": 1123,
      "##液": 1124,
      "##循": 1125,
      "##环": 1126,
      "##畅": 1127,
      "##仰": 1128,
      "##卧": 1129,
      "##两": 1130,
      "##替": 1131,
      "##晨": 1132,
      "##起": 1133,
      "##冷": 1134,
      "##毛": 1135,
      "##巾": 1136,
      "##5": 1137,
      "##处": 1138,
      "##结": 1139,
      "##人": 1140,
      "##朋": 1141,
      "##友": 1142,
      "##流": 1143,
      "##参": 1144,
      "##活": 1145,
      "##散": 1146,
      "##步": 1147,
      "##聊": 1148,
      "##边": 1149,
      "##络": 1150,
      "##上": 1151,
      "##帘": 1152,
      "##太": 1153,
      "##阳": 1154,
      "##炸": 1155,
      "##品": 1156,
      "##升": 1157,
      "##晒": 1158,
      "##脚": 1159,
      "##冰": 1160,
      "##果": 1161,
      "##脾": 1162,
      "##将": 1163,
      "##温": 1164,
      "##一": 1165,
      "##再": 1166,
      "##如": 1167,
      "##蒸": 1168,
      "##苹": 1169,
      "##光": 1170,
      "##设": 1171,
      "##备": 1172,
      "##舒": 1173,
      "##轻": 1174,
      "##乐": 1175,
      "##涌": 1176,
      "##泉": 1177,
      "##助": 1178,
      "##肠": 1179,
      "##宵": 1180,
      "##烧": 1181,
      "##烤": 1182,
      "##甘": 1183,
      "##三": 1184,
      "##酯": 1185,
      "##戒": 1186,
      "##掉": 1187,
      "##夜": 1188,
      "##清": 1189,
      "##代": 1190,
      "##萝": 1191,
      "##卜": 1192,
      "##化": 1193,
      "##痰": 1194,
      "##祛": 1195,
      "##湿": 1196,
      "##外": 1197,
      "##卖": 1198,
      "##餐": 1199,
      "##具": 1200,
      "##卫": 1201,
      "##染": 1202,
      "##熬": 1203,
      "##赶": 1204,
      "##工": 1205,
      "##记": 1206,
      "##忆": 1207,
      "##细": 1208,
      "##菌": 1209,
      "##烫": 1210,
      "##洗": 1211,
      "##选": 1212,
      "##择": 1213,
      "##正": 1214,
      "##规": 1215,
      "##商": 1216,
      "##险": 1217,
      "##声": 1218,
      "##说": 1219,
      "##话": 1220,
      "##带": 1221,
      "##损": 1222,
      "##明": 1223,
      "##目": 1224,
      "##便": 1225,
      "##干": 1226,
      "##嗓": 1227,
      "##度": 1228,
      "##肺": 1229,
      "##阴": 1230,
      "##多": 1231,
      "##冬": 1232,
      "##胖": 1233,
      "##润": 1234,
      "##喉": 1235,
      "##2": 1236,
      "##颗": 1237,
      "##梨": 1238,
      "##滋": 1239,
      "##反": 1240,
      "##肪": 1241,
      "##酸": 1242,
      "##管": 1243,
      "##鸡": 1244,
      "##薯": 1245,
      "##等": 1246,
      "##粗": 1247,
      "##纤": 1248,
      "##维": 1249,
      "##杯": 1250,
      "##节": 1251,
      "##道": 1252,
      "##群": 1253,
      "##碗": 1254,
      "##糙": 1255,
      "##菜": 1256,
      "##腻": 1257,
      "##护": 1258,
      "##闭": 1259,
      "##间": 1260,
      "##足": 1261,
      "##保": 1262,
      "##持": 1263,
      "##病": 1264,
      "##骨": 1265,
      "##神": 1266,
      "##臀": 1267,
      "##桥": 1268,
      "##促": 1269,
      "##进": 1270,
      "##药": 1271,
      "##辛": 1272,
      "##辣": 1273,
      "##味": 1274,
      "##灼": 1275,
      "##克": 1276,
      "##左": 1277,
      "##右": 1278,
      "##宽": 1279,
      "##棉": 1280,
      "##泡": 1281,
      "##掏": 1282,
      "##黏": 1283,
      "##膜": 1284,
      "##洁": 1285,
      "##仅": 1286,
      "##口": 1287,
      "##签": 1288,
      "##拭": 1289,
      "##挖": 1290,
      "##勺": 1291,
      "##咀": 1292,
      "##嚼": 1293,
      "##咬": 1294,
      "##颞": 1295,
      "##颌": 1296,
      "##关": 1297,
      "##双": 1298,
      "##摩": 1299,
      "##慢": 1300,
      "##咽": 1301,
      "##负": 1302,
      "##担": 1303,
      "##露": 1304,
      "##脐": 1305,
      "##装": 1306,
      "##房": 1307,
      "##薄": 1308,
      "##毯": 1309,
      "##住": 1310,
      "##异": 1311,
      "##锅": 1312,
      "##刺": 1313,
      "##激": 1314,
      "##火": 1315,
      "##汤": 1316,
      "##底": 1317,
      "##白": 1318,
      "##朵": 1319,
      "##瘙": 1320,
      "##痒": 1321,
      "##发": 1322,
      "##炎": 1323,
      "##重": 1324,
      "##甜": 1325,
      "##腔": 1326,
      "##蛀": 1327,
      "##牙": 1328,
      "##亮": 1329,
      "##睛": 1330,
      "##疲": 1331,
      "##劳": 1332,
      "##走": 1333,
      "##路": 1334,
      "##崴": 1335,
      "##色": 1336,
      "##素": 1337,
      "##沉": 1338,
      "##3": 1339,
      "##点": 1340,
      "##片": 1341,
      "##若": 1342,
      "##饥": 1343,
      "##饿": 1344,
      "##面": 1345,
      "##方": 1346,
      "##秘": 1347,
      "##平": 1348,
      "##衡": 1349,
      "##8": 1350,
      "##之": 1351,
      "##恢": 1352,
      "##复": 1353,
      "##椒": 1354,
      "##波": 1355,
      "##功": 1356,
      "##弱": 1357,
      "##呼": 1358,
      "##吸": 1359,
      "##训": 1360,
      "##练": 1361,
      "##快": 1362,
      "##跑": 1363,
      "##强": 1364,
      "##对": 1365,
      "##称": 1366,
      "##个": 1367,
      "##衣": 1368,
      "##肚": 1369,
      "##9": 1370,
      "##背": 1371,
      "##桂": 1372,
      "##圆": 1373,
      "##瘫": 1374,
      "##整": 1375,
      "##向": 1376,
      "##挡": 1377,
      "##板": 1378,
      "##位": 1379,
      "##咙": 1380,
      "##酒": 1381,
      "##脏": 1382,
      "##喊": 1383,
      "##叫": 1384,
      "##长": 1385,
      "##麻": 1386,
      "##番": 1387,
      "##茄": 1388,
      "##抗": 1389,
      "##修": 1390,
      "##皮": 1391,
      "##肤": 1392,
      "##至": 1393,
      "##摇": 1394,
      "##模": 1395,
      "##距": 1396,
      "##离": 1397,
      "##以": 1398,
      "##顶": 1399,
      "##颈": 1400,
      "##龋": 1401,
      "##齿": 1402,
      "##且": 1403,
      "##完": 1404,
      "##漱": 1405,
      "##早": 1406,
      "##晚": 1407,
      "##氟": 1408,
      "##膏": 1409,
      "##腐": 1410,
      "##症": 1411,
      "##滴": 1412,
      "##无": 1413,
      "##防": 1414,
      "##剂": 1415,
      "##泪": 1416,
      "##瓜": 1417,
      "##条": 1418,
      "##监": 1419,
      "##测": 1420,
      "##枯": 1421,
      "##断": 1422,
      "##主": 1423,
      "##南": 1424,
      "##密": 1425,
      "##定": 1426,
      "##滤": 1427,
      "##网": 1428,
      "##炭": 1429,
      "##附": 1430,
      "##泌": 1431,
      "##垫": 1432,
      "##枕": 1433,
      "##状": 1434,
      "##菠": 1435,
      "##叶": 1436,
      "##黄": 1437,
      "##枸": 1438,
      "##杞": 1439,
      "##视": 1440,
      "##境": 1441,
      "##蛋": 1442,
      "##序": 1443,
      "##渐": 1444,
      "##证": 1445,
      "##优": 1446,
      "##肉": 1447,
      "##憋": 1448,
      "##偶": 1449,
      "##尔": 1450,
      "##急": 1451,
      "##肩": 1452,
      "##包": 1453,
      "##收": 1454,
      "##缩": 1455,
      "##根": 1456,
      "##很": 1457,
      "##碳": 1458,
      "##蒲": 1459,
      "##公": 1460,
      "##英": 1461,
      "##腌": 1462,
      "##咸": 1463,
      "##亚": 1464,
      "##硝": 1465,
      "##标": 1466,
      "##换": 1467,
      "##体": 1468,
      "##靠": 1469,
      "##墙": 1470,
      "##夹": 1471,
      "##摄": 1472,
      "##各": 1473,
      "##抬": 1474,
      "##癌": 1475,
      "##新": 1476,
      "##鲜": 1477,
      "##蔬": 1478,
      "##7": 1479,
      "##中": 1480,
      "##午": 1481,
      "##憩": 1482,
      "##精": 1483,
      "##膳": 1484,
      "##芹": 1485,
      "##豆": 1486,
      "##闷": 1487,
      "##休": 1488,
      "##息": 1489,
      "##率": 1490,
      "##采": 1491,
      "##半": 1492,
      "##姿": 1493,
      "##涂": 1494,
      "##抹": 1495,
      "##霜": 1496,
      "##磨": 1497,
      "##砂": 1498,
      "##年": 1499,
      "##试": 1500,
      "##淘": 1501,
      "##差": 1502,
      "##踮": 1503,
      "##斑": 1504,
      "##暗": 1505,
      "##字": 1506,
      "##操": 1507,
      "##原": 1508,
      "##坚": 1509,
      "##陈": 1510,
      "##泻": 1511,
      "##微": 1512,
      "##炉": 1513,
      "##营": 1514,
      "##在": 1515,
      "##髓": 1516,
      "##划": 1517,
      "##作": 1518,
      "##核": 1519,
      "##桃": 1520,
      "##津": 1521,
      "##搓": 1522,
      "##烹": 1523,
      "##饪": 1524,
      "##剩": 1525,
      "##留": 1526,
      "##孔": 1527,
      "##肥": 1528,
      "##容": 1529,
      "##晕": 1530,
      "##建议": 1531,
      "##每天": 1532,
      "长期": 1533,
      "##分钟": 1534,
      "频繁": 1535,
      "##建议每天": 1536,
      "##0分钟": 1537,
      "##避免": 1538,
      "经常": 1539,
      "##部易": 1540,
      "##睡前": 1541,
      "##食物": 1542,
      "##不超": 1543,
      "##小时": 1544,
      "缺乏": 1545,
      "##1次": 1546,
      "##每周": 1547,
      "##运动": 1548,
      "##肠胃": 1549,
      "##促进": 1550,
      "##每天吃": 1551,
      "##10分钟": 1552,
      "##直吹": 1553,
      "##手机": 1554,
      "频繁吃": 1555,
      "##不适": 1556,
      "##不足": 1557,
      "##搭配": 1558,
      "##看手机": 1559,
      "##减少": 1560,
      "##15": 1561,
      "##00": 1562,
      "##食品": 1563,
      "##伤脾": 1564,
      "##经常": 1565,
      "##零食": 1566,
      "##热敷": 1567,
      "##缓解": 1568,
      "##循环": 1569,
      "##升高": 1570,
      "##多吃": 1571,
      "##甜食": 1572,
      "##建议少": 1573,
      "长期用": 1574,
      "##每天吃1": 1575,
      "##空调": 1576,
      "##易升高": 1577,
      "##10": 1578,
      "##血脂": 1579,
      "##耳道": 1580,
      "##伤肝": 1581,
      "##时间": 1582,
      "##通风": 1583,
      "##饮料": 1584,
      "##入睡": 1585,
      "##餐具": 1586,
      "##说话": 1587,
      "##23": 1588,
      "##20分钟": 1589,
      "##皮肤": 1590,
      "##颈椎": 1591,
      "##建议睡前": 1592,
      "##每天喝": 1593,
      "长期吃": 1594,
      "经常吃": 1595,
      "##肠胃易": 1596,
      "久坐": 1597,
      "熬夜": 1598,
      "睡前": 1599,
      "空调": 1600,
      "##油炸": 1601,
      "##红枣": 1602,
      "##加热": 1603,
      "##加重": 1604,
      "##配合": 1605,
      "##腹部": 1606,
      "##吹风": 1607,
      "##空腹": 1608,
      "##易致": 1609,
      "##易受": 1610,
      "##减轻": 1611,
      "##睡觉": 1612,
      "##前入睡": 1613,
      "##气血": 1614,
      "##心脏": 1615,
      "##水果": 1616,
      "##水洗": 1617,
      "##血压": 1618,
      "##血液": 1619,
      "##交替": 1620,
      "##戴耳": 1621,
      "##头部": 1622,
      "##头痛": 1623,
      "##补充": 1624,
      "##穿高": 1625,
      "##静脉": 1626,
      "##开窗": 1627,
      "##室内": 1628,
      "##胆囊": 1629,
      "##生姜": 1630,
      "##跟鞋": 1631,
      "##热毛": 1632,
      "##单侧": 1633,
      "##及时": 1634,
      "##活动": 1635,
      "##太阳": 1636,
      "##苹果": 1637,
      "##烧烤": 1638,
      "##染发": 1639,
      "##熬夜": 1640,
      "##声说话": 1641,
      "##反酸": 1642,
      "##辛辣": 1643,
      "##膜建议": 1644,
      "##咀嚼": 1645,
      "##负担": 1646,
      "##异味": 1647,
      "##点前入睡": 1648,
      "##面部": 1649,
      "##肩包": 1650,
      "##咸菜": 1651,
      "##建议每": 1652,
      "##每天做": 1653,
      "频繁熬夜": 1654,
      "##每周吃": 1655,
      "##不足建议每天": 1656,
      "##伤脾阳": 1657,
      "##建议少吃": 1658,
      "##10次": 1659,
      "##23点前入睡": 1660,
      "##戴耳机": 1661,
      "##开窗通风": 1662,
      "##热毛巾": 1663,
      "1把": 1664,
      "单侧": 1665,
      "每天": 1666,
      "油炸": 1667,
      "甜食": 1668,
      "生冷": 1669,
      "##茶润": 1670,
      "##高油": 1671,
      "##少量": 1672,
      "##喝水": 1673,
      "##喝酒": 1674,
      "##自制": 1675,
      "##奶茶": 1676,
      "##用热毛巾": 1677,
      "##量不超": 1678,
      "##不盖": 1679,
      "##麦冬": 1680,
      "##增加": 1681,
      "##腹痛": 1682,
      "##腹部易": 1683,
      "##调味": 1684,
      "##调至": 1685,
      "##易生": 1686,
      "##易有": 1687,
      "##易不适": 1688,
      "##易反酸": 1689,
      "##电子": 1690,
      "##电解": 1691,
      "##屏幕": 1692,
      "##眨眼": 1693,
      "##致肝": 1694,
      "##睡眠": 1695,
      "##11": 1696,
      "##1小时": 1697,
      "##气建议": 1698,
      "##气不足建议每天": 1699,
      "##拉伸": 1700,
      "##放松": 1701,
      "##身裤": 1702,
      "##下肢": 1703,
      "##下降": 1704,
      "##水喝": 1705,
      "##的食物": 1706,
      "##社交": 1707,
      "##情绪": 1708,
      "##煮生姜": 1709,
      "##饭后": 1710,
      "##后热敷": 1711,
      "##小米": 1712,
      "##小憩": 1713,
      "##胃建议每天": 1714,
      "##耳朵": 1715,
      "##伤气血": 1716,
      "##过度": 1717,
      "##过亮": 1718,
      "##按揉": 1719,
      "##按摩": 1720,
      "##风险": 1721,
      "##风头痛": 1722,
      "##扇直吹": 1723,
      "##紧张": 1724,
      "##大海": 1725,
      "##大声说话": 1726,
      "##生冷": 1727,
      "##饮用": 1728,
      "##饮水": 1729,
      "##受凉": 1730,
      "##4小时": 1731,
      "##回流": 1732,
      "##肌肉": 1733,
      "##能性": 1734,
      "##侧交替": 1735,
      "##浮肿": 1736,
      "##手部": 1737,
      "##手脚": 1738,
      "##久坐": 1739,
      "##压迫": 1740,
      "##晨起": 1741,
      "##5分钟": 1742,
      "##流失": 1743,
      "##活量": 1744,
      "##晒太阳": 1745,
      "##再吃": 1746,
      "##蒸苹果": 1747,
      "##肠道": 1748,
      "##宵烧烤": 1749,
      "##清热": 1750,
      "##清蒸": 1751,
      "##萝卜": 1752,
      "##外卖": 1753,
      "##声带": 1754,
      "##便食品": 1755,
      "##嗓过度": 1756,
      "##肺活量": 1757,
      "##胖大海": 1758,
      "##喉避免": 1759,
      "##2次": 1760,
      "##20": 1761,
      "##200": 1762,
      "##酸奶": 1763,
      "##酸饮料": 1764,
      "##薯片": 1765,
      "##纤维": 1766,
      "##保持": 1767,
      "##保证": 1768,
      "##进食": 1769,
      "##黏膜建议": 1770,
      "##咬肌": 1771,
      "##关节": 1772,
      "##脐装": 1773,
      "##刺激": 1774,
      "##火锅": 1775,
      "##发质": 1776,
      "##走路": 1777,
      "##崴脚": 1778,
      "##8小时": 1779,
      "##呼吸": 1780,
      "##长时间": 1781,
      "##模式": 1782,
      "##枸杞": 1783,
      "##腌制": 1784,
      "##中午": 1785,
      "##营养": 1786,
      "##核桃": 1787,
      "##建议用": 1788,
      "##建议戒": 1789,
      "##建议多": 1790,
      "##每天按摩": 1791,
      "长期单侧": 1792,
      "频繁掏": 1793,
      "##建议每天做": 1794,
      "##避免空腹": 1795,
      "经常穿": 1796,
      "缺乏运动": 1797,
      "##促进循环": 1798,
      "##10分钟促进": 1799,
      "##直吹面部": 1800,
      "##15分钟": 1801,
      "##伤脾胃建议每天": 1802,
      "##建议少喝": 1803,
      "##血脂易升高": 1804,
      "久坐致": 1805,
      "空调房": 1806,
      "##油炸食品": 1807,
      "##红枣水": 1808,
      "##易受损": 1809,
      "##水洗碗": 1810,
      "##血液循环": 1811,
      "##穿高跟鞋": 1812,
      "##每周吃1次": 1813,
      "##伤脾阳建议": 1814,
      "##建议少吃薯片": 1815,
      "##23点前入睡每天吃1": 1816,
      "##茶润喉避免": 1817,
      "##用热毛巾敷": 1818,
      "##不盖被": 1819,
      "##调味品": 1820,
      "##电解质": 1821,
      "##饭后喝": 1822,
      "##小米粥": 1823,
      "##能性饮料": 1824,
      "1颗": 1825,
      "1杯": 1826,
      "1个": 1827,
      "久戴耳机": 1828,
      "低头": 1829,
      "冷水": 1830,
      "功能性饮料": 1831,
      "勾脚": 1832,
      "午时": 1833,
      "单肩包": 1834,
      "压力": 1835,
      "可煮生姜": 1836,
      "咸菜": 1837,
      "外卖": 1838,
      "多吃": 1839,
      "夜宵烧烤": 1840,
      "大声说话": 1841,
      "奶茶": 1842,
      "密闭": 1843,
      "少晒太阳": 1844,
      "屏幕": 1845,
      "山药": 1846,
      "建议": 1847,
      "微波": 1848,
      "憋尿": 1849,
      "方便食品": 1850,
      "染发": 1851,
      "每餐": 1852,
      "油条": 1853,
      "火锅": 1854,
      "炖的食物": 1855,
      "炸鸡": 1856,
      "焦虑": 1857,
      "煮梨": 1858,
      "煮方": 1859,
      "独处": 1860,
      "生食": 1861,
      "生菜": 1862,
      "用嗓过度": 1863,
      "白煮": 1864,
      "白萝卜": 1865,
      "眨眼": 1866,
      "睡眠": 1867,
      "碳酸饮料": 1868,
      "窗边": 1869,
      "紧身裤": 1870,
      "红薯": 1871,
      "红豆": 1872,
      "缺水": 1873,
      "羊肉": 1874,
      "节食": 1875,
      "花椒": 1876,
      "菊花": 1877,
      "蓝光": 1878,
      "豆腐": 1879,
      "走路": 1880,
      "辣椒": 1881,
      "辣条": 1882,
      "过度": 1883,
      "零食": 1884,
      "露脐装": 1885,
      "韭菜": 1886,
      "风扇直吹": 1887,
      "高油": 1888,
      "高跟鞋": 1889,
      "黄瓜": 1890,
      "##茶不": 1891,
      "##茶疏": 1892,
      "##茶养": 1893,
      "##高糖": 1894,
      "##高盐": 1895,
      "##高双": 1896,
      "##高枕": 1897,
      "##糖不超": 1898,
      "##糖搭配": 1899,
      "##糖易升高": 1900,
      "##糖水喝": 1901,
      "##油三": 1902,
      "##油腻": 1903,
      "##少致": 1904,
      "##少放": 1905,
      "##少水": 1906,
      "##少吃": 1907,
      "##喝淡": 1908,
      "##喝3": 1909,
      "##喝功": 1910,
      "##喝很": 1911,
      "##喝碳": 1912,
      "##喝生姜": 1913,
      "##喝奶茶": 1914,
      "##喝麦冬": 1915,
      "##自备": 1916,
      "##奶和": 1917,
      "##用纯": 1918,
      "##用开": 1919,
      "##用含": 1920,
      "##用冷": 1921,
      "##用活": 1922,
      "##用蒸": 1923,
      "##用棉": 1924,
      "##用挖": 1925,
      "##用半": 1926,
      "##用淘": 1927,
      "##用空调": 1928,
      "##牛奶和": 1929,
      "##和后": 1930,
      "##和家": 1931,
      "##和颞": 1932,
      "##和长时间": 1933,
      "##和电解质": 1934,
      "##量喝水": 1935,
      "##红茶不": 1936,
      "##红糖水喝": 1937,
      "##不动": 1938,
      "##不吃": 1939,
      "##不通": 1940,
      "##不均": 1941,
      "##不畅": 1942,
      "##不卫": 1943,
      "##不对": 1944,
      "##不休": 1945,
      "##不看手机": 1946,
      "##不通风": 1947,
      "##不活动": 1948,
      "##不进食": 1949,
      "##加盖": 1950,
      "##加装": 1951,
      "##加快": 1952,
      "##加1次": 1953,
      "##加喝酒": 1954,
      "##加糖搭配": 1955,
      "##燕麦": 1956,
      "##增强": 1957,
      "##饱腹": 1958,
      "##饱夜": 1959,
      "##腹式": 1960,
      "##腹泻": 1961,
      "##感染": 1962,
      "##吹空调": 1963,
      "##空气": 1964,
      "##空间": 1965,
      "##调节": 1966,
      "##调整": 1967,
      "##调建议": 1968,
      "##盖薄": 1969,
      "##子水": 1970,
      "##子每天做": 1971,
      "##子腹部易": 1972,
      "##部做": 1973,
      "##部拉伸": 1974,
      "##部血液循环": 1975,
      "##部不对": 1976,
      "##易导": 1977,
      "##易乏": 1978,
      "##易水": 1979,
      "##易低": 1980,
      "##易缺": 1981,
      "##易干": 1982,
      "##易瘙": 1983,
      "##易疲": 1984,
      "##易劳": 1985,
      "##易长": 1986,
      "##易断": 1987,
      "##易下降": 1988,
      "##易崴脚": 1989,
      "##着凉": 1990,
      "##着建议": 1991,
      "##期清": 1992,
      "##看电子": 1993,
      "##电脑": 1994,
      "##眼睛": 1995,
      "##眼症": 1996,
      "##眼10分钟": 1997,
      "##眼模式": 1998,
      "##次数": 1999,
      "##次小": 2000,
      "##次性": 2001,
      "##次快": 2002,
      "##次睡前": 2003,
      "##次15": 2004,
      "##减重": 2005,
      "##减弱": 2006,
      "##减肥": 2007,
      "##虑失": 2008,
      "##致心": 2009,
      "##致胃": 2010,
      "##致氧": 2011,
      "##致甘": 2012,
      "##致维": 2013,
      "##致色": 2014,
      "##致面": 2015,
      "##致平": 2016,
      "##致癌": 2017,
      "##致血压": 2018,
      "##致头部": 2019,
      "##致胆囊": 2020,
      "##致单侧": 2021,
      "##致异味": 2022,
      "##致腹痛": 2023,
      "##致下肢": 2024,
      "##致肠道": 2025,
      "##致血液循环": 2026,
      "##肝理": 2027,
      "##肝肾": 2028,
      "##肝护": 2029,
      "##肝脏": 2030,
      "##郁结": 2031,
      "##郁建议睡前": 2032,
      "##睡姿": 2033,
      "##睡在": 2034,
      "##睡心脏": 2035,
      "##睡晨起": 2036,
      "##前做": 2037,
      "##前用开": 2038,
      "##冥想": 2039,
      "##1杯": 2040,
      "##13": 2041,
      "##0分": 2042,
      "##0可": 2043,
      "##分8": 2044,
      "##分泌": 2045,
      "##每次15": 2046,
      "##天疏": 2047,
      "##天再吃": 2048,
      "##天分8": 2049,
      "##玫瑰": 2050,
      "##花茶疏": 2051,
      "##理外": 2052,
      "##理规": 2053,
      "##气孔": 2054,
      "##气配合": 2055,
      "##气郁结": 2056,
      "##合理规": 2057,
      "##拉上": 2058,
      "##伸展": 2059,
      "##放下": 2060,
      "##松棉": 2061,
      "##身心": 2062,
      "##身活动": 2063,
      "##心慌": 2064,
      "##乏膳": 2065,
      "##动建议少吃薯片": 2066,
      "##下再吃": 2067,
      "##水通": 2068,
      "##水或": 2069,
      "##水利": 2070,
      "##水烫": 2071,
      "##水白": 2072,
      "##水面": 2073,
      "##食如": 2074,
      "##食纤维": 2075,
      "##食减肥": 2076,
      "##物腹部": 2077,
      "##吃太": 2078,
      "##吃温": 2079,
      "##吃完": 2080,
      "##吃食物": 2081,
      "##吃少量": 2082,
      "##吃清蒸": 2083,
      "##吃外卖": 2084,
      "##吃火锅": 2085,
      "##吃糖不超": 2086,
      "##深海": 2087,
      "##深入": 2088,
      "##深呼吸": 2089,
      "##鱼降": 2090,
      "##鱼代": 2091,
      "##鱼肉": 2092,
      "##降低": 2093,
      "##血管": 2094,
      "##血建议睡前": 2095,
      "##血糖易升高": 2096,
      "##脂肪": 2097,
      "##交流": 2098,
      "##低头": 2099,
      "##煮水喝": 2100,
      "##后4": 2101,
      "##后煮生姜": 2102,
      "##米须": 2103,
      "##米以": 2104,
      "##米字": 2105,
      "##米水洗": 2106,
      "##养胃": 2107,
      "##养发质": 2108,
      "##胃部易": 2109,
      "##胃黏膜建议": 2110,
      "##耳伤": 2111,
      "##耳窍": 2112,
      "##耳勺": 2113,
      "##伤脑": 2114,
      "##伤肾": 2115,
      "##伤肺": 2116,
      "##伤视": 2117,
      "##伤肠胃": 2118,
      "##伤颈椎": 2119,
      "##伤头部": 2120,
      "##伤手部": 2121,
      "##伤声带": 2122,
      "##伤咬肌": 2123,
      "##伤血管": 2124,
      "##伤耳窍": 2125,
      "##超标": 2126,
      "##超20": 2127,
      "##过久": 2128,
      "##过多": 2129,
      "##过1小时": 2130,
      "##时细": 2131,
      "##时垫": 2132,
      "##时搭配": 2133,
      "##时热敷": 2134,
      "##时保持": 2135,
      "##时喝生姜": 2136,
      "##时用淘": 2137,
      "##时加盖": 2138,
      "##音乐": 2139,
      "##音量不超": 2140,
      "##6小时": 2141,
      "##60可": 2142,
      "##可听": 2143,
      "##可泡": 2144,
      "##可用棉": 2145,
      "##可吃少量": 2146,
      "##揉手脚": 2147,
      "##听宫": 2148,
      "##穴助": 2149,
      "##穴位": 2150,
      "##穴缓解": 2151,
      "##风口": 2152,
      "##风板": 2153,
      "##头侧": 2154,
      "##头滋": 2155,
      "##头顶": 2156,
      "##头晕": 2157,
      "##头部易": 2158,
      "##头模式": 2159,
      "##把枸杞": 2160,
      "##蓝莓": 2161,
      "##补脑": 2162,
      "##补气血": 2163,
      "##补肝肾": 2164,
      "##补水面": 2165,
      "##益智": 2166,
      "##穿宽": 2167,
      "##紧身裤": 2168,
      "##裤子每天做": 2169,
      "##腿部易": 2170,
      "##腿10分钟促进": 2171,
      "##腿部拉伸": 2172,
      "##曲张": 2173,
      "##窗边": 2174,
      "##窗帘": 2175,
      "##通减少": 2176,
      "##内冷": 2177,
      "##缺乏膳": 2178,
      "##氧化": 2179,
      "##力下降": 2180,
      "##力不均": 2181,
      "##力头晕": 2182,
      "##大便": 2183,
      "##大经常": 2184,
      "##大量喝水": 2185,
      "##经受": 2186,
      "##经络": 2187,
      "##焦虑失": 2188,
      "##失调建议": 2189,
      "##繁刷": 2190,
      "##囊建议每": 2191,
      "##生痰": 2192,
      "##生素": 2193,
      "##生肠胃易": 2194,
      "##腰椎": 2195,
      "##腰肌": 2196,
      "##腰衣": 2197,
      "##腰部易": 2198,
      "##腰部做": 2199,
      "##受力不均": 2200,
      "##40分钟": 2201,
      "##回家": 2202,
      "##家减少": 2203,
      "##热主": 2204,
      "##敷脸": 2205,
      "##敷之": 2206,
      "##敷补水面": 2207,
      "##做菜": 2208,
      "##做臀": 2209,
      "##做1次": 2210,
      "##猫式": 2211,
      "##式烹": 2212,
      "##式脂肪": 2213,
      "##缓轻": 2214,
      "##解腻": 2215,
      "##解情绪": 2216,
      "##能减弱": 2217,
      "##性炭": 2218,
      "##性食物": 2219,
      "##含咖": 2220,
      "##含反": 2221,
      "##啡因": 2222,
      "##质蛋": 2223,
      "##质裤子每天做": 2224,
      "##改喝淡": 2225,
      "##改吃清蒸": 2226,
      "##盐水或": 2227,
      "##盐超标": 2228,
      "##或两": 2229,
      "##或慢": 2230,
      "##或蒸苹果": 2231,
      "##或加装": 2232,
      "##椰子水": 2233,
      "##单肩包": 2234,
      "##脸部易": 2235,
      "##脸部不对": 2236,
      "##频尿": 2237,
      "##频繁刷": 2238,
      "##刷牙": 2239,
      "##手霜": 2240,
      "##手部易": 2241,
      "##手及时": 2242,
      "##入多吃": 2243,
      "##困难": 2244,
      "##尿意": 2245,
      "##尿偶": 2246,
      "##尿频尿": 2247,
      "##肾且": 2248,
      "##有尿意": 2249,
      "##排空": 2250,
      "##排出": 2251,
      "##出风口": 2252,
      "##玉米须": 2253,
      "##淋避免": 2254,
      "##坐骨": 2255,
      "##压力": 2256,
      "##压建议每": 2257,
      "##膀胱": 2258,
      "##液不足建议每天": 2259,
      "##循序": 2260,
      "##环境": 2261,
      "##仰卧": 2262,
      "##卧位": 2263,
      "##卧减轻": 2264,
      "##替烧烤": 2265,
      "##起身活动": 2266,
      "##冷风头痛": 2267,
      "##冷水洗碗": 2268,
      "##毛囊建议每": 2269,
      "##5克": 2270,
      "##5每天做": 2271,
      "##人朋": 2272,
      "##人工": 2273,
      "##友交流": 2274,
      "##流通减少": 2275,
      "##参加1次": 2276,
      "##散步": 2277,
      "##聊天疏": 2278,
      "##上火": 2279,
      "##上避免": 2280,
      "##阳气建议": 2281,
      "##阳气不足建议每天": 2282,
      "##炸鸡": 2283,
      "##晒背": 2284,
      "##脚10分钟促进": 2285,
      "##冰凉": 2286,
      "##冰饮": 2287,
      "##将水果": 2288,
      "##温一": 2289,
      "##温水洗碗": 2290,
      "##温水白": 2291,
      "##温性食物": 2292,
      "##一次性": 2293,
      "##如蒸苹果": 2294,
      "##如鱼肉": 2295,
      "##光每天吃1": 2296,
      "##设备": 2297,
      "##舒缓轻": 2298,
      "##轻拭": 2299,
      "##涌泉": 2300,
      "##宵每周吃1次": 2301,
      "##酯升高": 2302,
      "##掉夜": 2303,
      "##夜宵烧烤": 2304,
      "##清洁": 2305,
      "##清汤": 2306,
      "##清理外": 2307,
      "##化痰": 2308,
      "##祛湿": 2309,
      "##湿建议少吃薯片": 2310,
      "##赶工": 2311,
      "##工作": 2312,
      "##记忆": 2313,
      "##细菌": 2314,
      "##菌滋": 2315,
      "##菌群": 2316,
      "##洗完": 2317,
      "##洗空调": 2318,
      "##洗餐具": 2319,
      "##选择": 2320,
      "##正规": 2321,
      "##商家减少": 2322,
      "##声每天喝": 2323,
      "##损失": 2324,
      "##损毛囊建议每": 2325,
      "##明目": 2326,
      "##便秘": 2327,
      "##干痛": 2328,
      "##干枯": 2329,
      "##干眼症": 2330,
      "##度不超": 2331,
      "##肺功": 2332,
      "##阴润": 2333,
      "##阴建议多": 2334,
      "##多次小": 2335,
      "##喉咙": 2336,
      "##喉经常": 2337,
      "##2颗": 2338,
      "##25克": 2339,
      "##颗核桃": 2340,
      "##梨滋": 2341,
      "##酸痛": 2342,
      "##酸分泌": 2343,
      "##酸伤血管": 2344,
      "##酸盐超标": 2345,
      "##等粗": 2346,
      "##等温性食物": 2347,
      "##粗糙": 2348,
      "##维片": 2349,
      "##节食减肥": 2350,
      "##菜补充": 2351,
      "##菜时加盖": 2352,
      "##护理": 2353,
      "##护胃": 2354,
      "##护住": 2355,
      "##护眼模式": 2356,
      "##护手霜": 2357,
      "##闭致异味": 2358,
      "##间易反酸": 2359,
      "##病菌滋": 2360,
      "##神经受": 2361,
      "##臀部易": 2362,
      "##臀部血液循环": 2363,
      "##桥运动": 2364,
      "##进减重": 2365,
      "##味坚": 2366,
      "##味零食": 2367,
      "##灼痛": 2368,
      "##克左": 2369,
      "##右避免空腹": 2370,
      "##泡脚10分钟促进": 2371,
      "##膜修": 2372,
      "##仅清理外": 2373,
      "##口腔": 2374,
      "##口早": 2375,
      "##口饮用": 2376,
      "##口直吹面部": 2377,
      "##口可用棉": 2378,
      "##口味零食": 2379,
      "##签轻拭": 2380,
      "##嚼慢": 2381,
      "##颌关节": 2382,
      "##双肩包": 2383,
      "##双侧交替": 2384,
      "##咽减轻": 2385,
      "##咽喉经常": 2386,
      "##露脐装": 2387,
      "##脐缓解": 2388,
      "##毯护住": 2389,
      "##锅底": 2390,
      "##白萝卜": 2391,
      "##白如鱼肉": 2392,
      "##痒发": 2393,
      "##发麻": 2394,
      "##发闷": 2395,
      "##发声每天喝": 2396,
      "##重量不超": 2397,
      "##重5每天做": 2398,
      "##重口味零食": 2399,
      "##蛀牙": 2400,
      "##牙膏": 2401,
      "##亮度不超": 2402,
      "##走或慢": 2403,
      "##素沉": 2404,
      "##3小时": 2405,
      "##3次快": 2406,
      "##点小憩": 2407,
      "##点晒背": 2408,
      "##片维片": 2409,
      "##若饥": 2410,
      "##饿可吃少量": 2411,
      "##方向": 2412,
      "##方便食品": 2413,
      "##平视": 2414,
      "##平时用淘": 2415,
      "##衡失调建议": 2416,
      "##恢复": 2417,
      "##复皮肤": 2418,
      "##波炉": 2419,
      "##波动建议少吃薯片": 2420,
      "##吸附": 2421,
      "##训练": 2422,
      "##跑增强": 2423,
      "##个蛋": 2424,
      "##肚脐缓解": 2425,
      "##910": 2426,
      "##背运动": 2427,
      "##背肌肉": 2428,
      "##背单肩包": 2429,
      "##桂圆": 2430,
      "##瘫风险": 2431,
      "##挡风板": 2432,
      "##酒23点前入睡每天吃1": 2433,
      "##喊叫": 2434,
      "##番茄": 2435,
      "##抗氧化": 2436,
      "##摇头模式": 2437,
      "##距离": 2438,
      "##颈易劳": 2439,
      "##龋齿": 2440,
      "##且伤脾胃建议每天": 2441,
      "##且致癌": 2442,
      "##且重量不超": 2443,
      "##漱口早": 2444,
      "##晚用含": 2445,
      "##氟牙膏": 2446,
      "##腐剂": 2447,
      "##症状": 2448,
      "##滴无": 2449,
      "##防腐剂": 2450,
      "##剂伤肝": 2451,
      "##泪液": 2452,
      "##瓜粥": 2453,
      "##条每天": 2454,
      "##监测": 2455,
      "##测试": 2456,
      "##南瓜粥": 2457,
      "##密闭致异味": 2458,
      "##定期清": 2459,
      "##滤网": 2460,
      "##网膜建议": 2461,
      "##菠菜补充": 2462,
      "##叶黄": 2463,
      "##黄瓜": 2464,
      "##渐进减重": 2465,
      "##优质蛋": 2466,
      "##憋尿偶": 2467,
      "##尔尿频尿": 2468,
      "##肩背肌肉": 2469,
      "##肩颈易劳": 2470,
      "##收缩": 2471,
      "##根黄瓜": 2472,
      "##蒲公": 2473,
      "##英茶养": 2474,
      "##亚硝": 2475,
      "##换双肩包": 2476,
      "##体重5每天做": 2477,
      "##靠墙": 2478,
      "##夹背运动": 2479,
      "##摄入多吃": 2480,
      "##各20": 2481,
      "##抬高双": 2482,
      "##新鲜": 2483,
      "##蔬菜": 2484,
      "##78小时": 2485,
      "##午睡心脏": 2486,
      "##精力": 2487,
      "##芹菜": 2488,
      "##息致心": 2489,
      "##率加快": 2490,
      "##采用半": 2491,
      "##涂抹": 2492,
      "##磨砂": 2493,
      "##年染发": 2494,
      "##差建议每天做": 2495,
      "##踮脚": 2496,
      "##斑暗": 2497,
      "##操睡前": 2498,
      "##原味坚": 2499,
      "##陈皮": 2500,
      "##微波炉": 2501,
      "##髓建议": 2502,
      "##划工作": 2503,
      "##津液不足建议每天": 2504,
      "##搓揉手脚": 2505,
      "##饪食物": 2506,
      "##剩菜时加盖": 2507,
      "##留气孔": 2508,
      "##容易乏": 2509,
      "##建议搭配": 2510,
      "##建议看手机": 2511,
      "##建议减少": 2512,
      "##建议自制": 2513,
      "##建议中午": 2514,
      "##建议自备": 2515,
      "##建议调整": 2516,
      "##建议盖薄": 2517,
      "##建议拉上": 2518,
      "##建议吃火锅": 2519,
      "##建议穿宽": 2520,
      "##建议循序": 2521,
      "##建议仰卧": 2522,
      "##建议双侧交替": 2523,
      "##建议换双肩包": 2524,
      "##每天保证": 2525,
      "##每天用热毛巾敷": 2526,
      "长期看手机": 2527,
      "长期吹风": 2528,
      "长期戴耳机": 2529,
      "长期久坐": 2530,
      "长期穿高跟鞋": 2531,
      "长期看电子": 2532,
      "长期睡在": 2533,
      "长期低头": 2534,
      "长期背单肩包": 2535,
      "长期憋尿偶": 2536,
      "频繁染发": 2537,
      "频繁喝奶茶": 2538,
      "##建议每天戴耳机": 2539,
      "##建议每天开窗通风": 2540,
      "##建议每天保证": 2541,
      "##建议每天穿高跟鞋": 2542,
      "##建议每天和家": 2543,
      "##避免头部": 2544,
      "##避免油腻": 2545,
      "##避免用挖": 2546,
      "##避免心慌": 2547,
      "##避免一次性": 2548,
      "经常大声说话": 2549,
      "经常喝功": 2550,
      "经常用空调": 2551,
      "经常吹空调": 2552,
      "##睡前易反酸": 2553,
      "##睡前拉伸": 2554,
      "##睡前泡脚10分钟促进": 2555,
      "##食物每天喝": 2556,
      "##食物肠胃易": 2557,
      "##食物营养": 2558,
      "##食物脸部不对": 2559,
      "##不超1次": 2560,
      "##不超4小时": 2561,
      "##不超2次": 2562,
      "##不超过1小时": 2563,
      "缺乏开窗通风": 2564,
      "缺乏喝水": 2565,
      "缺乏社交": 2566,
      "缺乏晒太阳": 2567,
      "缺乏午睡心脏": 2568,
      "##1次仅清理外": 2569,
      "##1次定期清": 2570,
      "##每周做1次": 2571,
      "##每周参加1次": 2572,
      "##每周清洁": 2573,
      "##每周3次快": 2574,
      "##运动各20": 2575,
      "##运动睡前泡脚10分钟促进": 2576,
      "##肠胃负担": 2577,
      "##肠胃建议吃火锅": 2578,
      "##促进胆囊": 2579,
      "##促进臀部血液循环": 2580,
      "##促进恢复": 2581,
      "##每天吃23": 2582,
      "##每天吃200": 2583,
      "##10分钟每天喝": 2584,
      "##10分钟每周3次快": 2585,
      "##直吹头顶": 2586,
      "##直吹冷风头痛": 2587,
      "##手机入睡": 2588,
      "频繁吃甜食": 2589,
      "频繁吃辛辣": 2590,
      "频繁吃高油": 2591,
      "频繁吃生冷": 2592,
      "频繁吃外卖": 2593,
      "频繁吃夜宵烧烤": 2594,
      "##不足伤气血": 2595,
      "##不足6小时": 2596,
      "##搭配红枣": 2597,
      "##搭配新鲜": 2598,
      "##看手机颈椎": 2599,
      "##看手机致平": 2600,
      "##减少营养": 2601,
      "##1500": 2602,
      "##15米以": 2603,
      "##00温水白": 2604,
      "##食品含反": 2605,
      "##经常手脚": 2606,
      "##经常喝碳": 2607,
      "##经常发闷": 2608,
      "##零食胆囊": 2609,
      "##零食致胆囊": 2610,
      "##零食生痰": 2611,
      "##零食喉咙": 2612,
      "##热敷腹部": 2613,
      "##热敷肚脐缓解": 2614,
      "##缓解浮肿": 2615,
      "##缓解腰肌": 2616,
      "##循环差建议每天做": 2617,
      "##多吃白萝卜": 2618,
      "##多吃桂圆": 2619,
      "##多吃原味坚": 2620,
      "##多吃陈皮": 2621,
      "##甜食及时": 2622,
      "##甜食反酸": 2623,
      "##甜食睡前易反酸": 2624,
      "长期用空调": 2625,
      "长期用嗓过度": 2626,
      "长期用电脑": 2627,
      "长期用冷水洗碗": 2628,
      "长期用微波炉": 2629,
      "##每天吃12颗": 2630,
      "##每天吃1根黄瓜": 2631,
      "##耳道黏膜建议": 2632,
      "##耳道易瘙": 2633,
      "##耳道口可用棉": 2634,
      "##伤肝建议戒": 2635,
      "##伤肝致色": 2636,
      "##伤肝血建议睡前": 2637,
      "##时间23点前入睡": 2638,
      "##时间不足6小时": 2639,
      "##餐具易有": 2640,
      "##餐具不卫": 2641,
      "##餐具吃外卖": 2642,
      "##20分钟补充": 2643,
      "##20分钟眨眼": 2644,
      "##20分钟保持": 2645,
      "##20分钟多吃桂圆": 2646,
      "##皮肤建议用": 2647,
      "##皮肤易长": 2648,
      "##皮肤测试": 2649,
      "##颈椎10分钟": 2650,
      "##颈椎米字": 2651,
      "##建议睡前4小时": 2652,
      "##建议睡前3小时": 2653,
      "##每天喝玉米须": 2654,
      "长期吃辛辣": 2655,
      "长期吃腌制": 2656,
      "长期吃油炸食品": 2657,
      "长期吃方便食品": 2658,
      "经常吃油炸": 2659,
      "经常吃生冷": 2660,
      "经常吃重口味零食": 2661,
      "经常吃甜食睡前易反酸": 2662,
      "##肠胃易不适": 2663,
      "##肠胃易上火": 2664,
      "久坐不动": 2665,
      "熬夜加喝酒": 2666,
      "熬夜伤脑": 2667,
      "熬夜伤肝致色": 2668,
      "睡前进食": 2669,
      "睡前吃太": 2670,
      "睡前频繁刷": 2671,
      "空调直吹面部": 2672,
      "##加热致维": 2673,
      "##加热剩菜时加盖": 2674,
      "##加热食物营养": 2675,
      "##加重肠胃负担": 2676,
      "##配合按揉": 2677,
      "##配合搓揉手脚": 2678,
      "##腹部腹痛": 2679,
      "##吹风致头部": 2680,
      "##吹风口直吹面部": 2681,
      "##空腹喝3": 2682,
      "##易致腰椎": 2683,
      "##易致阳气不足建议每天": 2684,
      "##易致龋齿": 2685,
      "##易受风头痛": 2686,
      "##减轻心脏": 2687,
      "##睡觉致血液循环": 2688,
      "##睡觉脸部易": 2689,
      "##睡觉避免头部": 2690,
      "##心脏易不适": 2691,
      "##水果伤脾阳建议": 2692,
      "##水果肠胃易不适": 2693,
      "##血压易升高": 2694,
      "##血液回流": 2695,
      "##交替敷脸": 2696,
      "##补充电解质": 2697,
      "##穿高腰衣": 2698,
      "##静脉回流": 2699,
      "##静脉曲张": 2700,
      "##静脉建议穿宽": 2701,
      "##室内易有": 2702,
      "##室内空气": 2703,
      "##室内易缺": 2704,
      "##及时排出": 2705,
      "##活动散步": 2706,
      "##太阳穴缓解": 2707,
      "##苹果促进胆囊": 2708,
      "##染发前做": 2709,
      "##辛辣刺激": 2710,
      "##咀嚼每天按摩": 2711,
      "##咀嚼伤咬肌": 2712,
      "##咀嚼食物脸部不对": 2713,
      "##负担加重": 2714,
      "##面部穴位": 2715,
      "##咸菜腌制": 2716,
      "##咸菜亚硝": 2717,
      "##咸菜不超1次": 2718,
      "##建议每20分钟眨眼": 2719,
      "##每天做颈椎米字": 2720,
      "频繁熬夜喝酒": 2721,
      "频繁熬夜赶工": 2722,
      "频繁熬夜皮肤易长": 2723,
      "##每周吃咸菜不超1次": 2724,
      "##建议少吃油炸食品": 2725,
      "##10次饮水": 2726,
      "##10次每天用热毛巾敷": 2727,
      "##10次促进臀部血液循环": 2728,
      "##开窗通风2次": 2729,
      "##热毛巾交替敷脸": 2730,
      "1把蓝莓": 2731,
      "1把菠菜补充": 2732,
      "单侧睡觉致血液循环": 2733,
      "单侧咀嚼伤咬肌": 2734,
      "每天睡眠": 2735,
      "每天喝很": 2736,
      "油炸食品含反": 2737,
      "油炸零食生痰": 2738,
      "甜食致胃": 2739,
      "甜食易致龋齿": 2740,
      "生冷伤脾阳": 2741,
      "生冷水果伤脾阳建议": 2742,
      "##高油建议少喝": 2743,
      "##少量红茶不": 2744,
      "##自制奶茶": 2745,
      "##麦冬茶润喉避免": 2746,
      "##增加饱腹": 2747,
      "##增加建议调整": 2748,
      "##腹部易受凉": 2749,
      "##调至护眼模式": 2750,
      "##调至摇头模式": 2751,
      "##易生痰": 2752,
      "##易生蛀牙": 2753,
      "##电子设备": 2754,
      "##屏幕眨眼": 2755,
      "##屏幕过亮": 2756,
      "##致肝郁建议睡前": 2757,
      "##致肝气郁结": 2758,
      "##睡眠中午": 2759,
      "##1113": 2760,
      "##1小时放下": 2761,
      "##气建议有尿意": 2762,
      "##气不足建议每天开窗通风2次": 2763,
      "##放松身心": 2764,
      "##放松肩背肌肉": 2765,
      "##下肢易水": 2766,
      "##的食物饭后喝": 2767,
      "##社交活动散步": 2768,
      "##情绪易低": 2769,
      "##后热敷腰部做": 2770,
      "##后热敷促进恢复": 2771,
      "##小憩15分钟": 2772,
      "##耳朵经常发闷": 2773,
      "##耳朵耳道易瘙": 2774,
      "##伤气血建议循序": 2775,
      "##过亮伤视": 2776,
      "##按揉听宫": 2777,
      "##扇直吹头部易": 2778,
      "##紧张建议换双肩包": 2779,
      "##大声说话每天吃12颗": 2780,
      "##饮水1500": 2781,
      "##受凉后煮生姜": 2782,
      "##肌肉紧张建议换双肩包": 2783,
      "##侧交替睡晨起": 2784,
      "##手部磨砂": 2785,
      "##久坐压迫": 2786,
      "##压迫静脉建议穿宽": 2787,
      "##晨起空腹喝3": 2788,
      "##5分钟吃食物": 2789,
      "##5分钟缓解浮肿": 2790,
      "##流失建议多": 2791,
      "##肠道菌群": 2792,
      "##清热解腻": 2793,
      "##清热明目": 2794,
      "##清蒸鱼代": 2795,
      "##声带易受损": 2796,
      "##肺活量易下降": 2797,
      "##胖大海茶润喉避免": 2798,
      "##胖大海麦冬茶润喉避免": 2799,
      "##2000分": 2800,
      "##酸奶调节": 2801,
      "##酸奶护胃": 2802,
      "##纤维食物每天喝": 2803,
      "##咬肌5分钟吃食物": 2804,
      "##关节负担": 2805,
      "##刺激胃黏膜建议": 2806,
      "##火锅肠胃易上火": 2807,
      "##发质干枯": 2808,
      "##走路不看手机": 2809,
      "##走路易崴脚": 2810,
      "##崴脚后4": 2811,
      "##8小时内冷": 2812,
      "##呼吸发声每天喝": 2813,
      "##长时间直吹头顶": 2814,
      "##核桃补肝肾": 2815,
      "##建议用腹式": 2816,
      "##建议戒掉夜": 2817,
      "##每天按摩面部穴位": 2818,
      "长期单侧睡觉脸部易": 2819,
      "长期单侧咀嚼食物脸部不对": 2820,
      "频繁掏耳伤": 2821,
      "频繁掏耳朵耳道易瘙": 2822,
      "##建议每天做深呼吸": 2823,
      "##避免空腹运动": 2824,
      "经常穿紧身裤": 2825,
      "经常穿露脐装": 2826,
      "缺乏运动下肢易水": 2827,
      "缺乏运动肺活量易下降": 2828,
      "##15分钟每周参加1次": 2829,
      "##伤脾胃建议每天饮水1500": 2830,
      "##建议少喝改喝淡": 2831,
      "久坐致坐骨": 2832,
      "久坐致肺功": 2833,
      "空调房不盖被": 2834,
      "空调房密闭致异味": 2835,
      "##红枣水饮用": 2836,
      "##红枣水热敷腹部": 2837,
      "##每周吃1次深海": 2838,
      "##伤脾阳建议穿高腰衣": 2839,
      "##23点前入睡每天吃1片维片": 2840,
      "##用热毛巾敷颈椎10分钟": 2841,
      "##不盖被子腹部易": 2842,
      "##调味品胃部易": 2843,
      "##调味品改吃清蒸": 2844,
      "##饭后喝酸奶护胃": 2845,
      "##小米粥养胃": 2846,
      "##小米粥或蒸苹果": 2847,
      "##能性饮料心脏易不适": 2848,
      "1颗番茄": 2849,
      "1杯蒲公": 2850,
      "1个苹果促进胆囊": 2851,
      "久戴耳机伤耳窍": 2852,
      "低头伤颈椎": 2853,
      "冷水伤手部": 2854,
      "功能性饮料含咖": 2855,
      "勾脚运动各20": 2856,
      "午时不休": 2857,
      "单肩包致单侧": 2858,
      "压力大经常": 2859,
      "可煮生姜红枣水饮用": 2860,
      "咸菜伤肠胃": 2861,
      "外卖餐具易有": 2862,
      "多吃核桃补肝肾": 2863,
      "夜宵烧烤致甘": 2864,
      "大声说话伤声带": 2865,
      "奶茶高糖": 2866,
      "密闭空间": 2867,
      "少晒太阳易致阳气不足建议每天": 2868,
      "屏幕过亮伤视": 2869,
      "山药粥": 2870,
      "建议少吃": 2871,
      "微波加热致维": 2872,
      "憋尿伤肾": 2873,
      "方便食品缺乏膳": 2874,
      "染发剂伤肝": 2875,
      "每餐吃温": 2876,
      "油条摄入多吃": 2877,
      "火锅辛辣刺激": 2878,
      "炖的食物每周吃1次深海": 2879,
      "炸鸡多吃陈皮": 2880,
      "焦虑易导": 2881,
      "煮梨每天吃200": 2882,
      "煮方式烹": 2883,
      "独处过久": 2884,
      "生菜清热解腻": 2885,
      "用嗓过度伤肺": 2886,
      "白煮的食物饭后喝": 2887,
      "白萝卜煮水喝": 2888,
      "眨眼少致": 2889,
      "睡眠不足伤气血": 2890,
      "碳酸饮料伤脾胃建议每天饮水1500": 2891,
      "窗边吹风致头部": 2892,
      "紧身裤压迫静脉建议穿宽": 2893,
      "红薯等粗": 2894,
      "红豆补气血": 2895,
      "缺水致肠道": 2896,
      "羊肉等温性食物": 2897,
      "节食伤气血建议循序": 2898,
      "花椒刺激胃黏膜建议": 2899,
      "菊花清热明目": 2900,
      "蓝光伤肝血建议睡前": 2901,
      "豆腐搭配红枣": 2902,
      "走路看手机致平": 2903,
      "辣条多吃原味坚": 2904,
      "过度节食减肥": 2905,
      "零食高盐": 2906,
      "露脐装伤脾阳建议穿高腰衣": 2907,
      "风扇直吹伤头部": 2908,
      "高油零食致胆囊": 2909,
      "高跟鞋易致腰椎": 2910,
      "黄瓜条每天": 2911,
      "##高枕头侧": 2912,
      "##油三酯升高": 2913,
      "##少放调味品改吃清蒸": 2914,
      "##少水经常喝碳": 2915,
      "##喝麦冬胖大海茶润喉避免": 2916,
      "##用纯牛奶和": 2917,
      "##用冷热毛巾交替敷脸": 2918,
      "##用活性炭": 2919,
      "##和后颈": 2920,
      "##和颞颌关节": 2921,
      "##和长时间说话": 2922,
      "##和电解质建议少喝改喝淡": 2923,
      "##红糖水喝热敷肚脐缓解": 2924,
      "##不吃甜食反酸": 2925,
      "##不通建议拉上": 2926,
      "##不畅建议仰卧": 2927,
      "##不通风室内易有": 2928,
      "##不活动臀部易": 2929,
      "##不进食若饥": 2930,
      "##加糖搭配燕麦": 2931,
      "##饱夜间易反酸": 2932,
      "##易干结": 2933,
      "##易疲劳": 2934,
      "##着建议23点前入睡每天吃1片维片": 2935,
      "##眼睛易疲劳": 2936,
      "##眼10分钟滴无": 2937,
      "##次数减少": 2938,
      "##次睡前抬高双": 2939,
      "##致氧气不足建议每天开窗通风2次": 2940,
      "##致面瘫风险": 2941,
      "##致血压波动建议少吃薯片": 2942,
      "##致腹痛建议盖薄": 2943,
      "##致下肢循环差建议每天做": 2944,
      "##肝理气配合": 2945,
      "##肝护肝": 2946,
      "##肝脏易受损": 2947,
      "##睡姿减轻心脏": 2948,
      "##前用开水烫": 2949,
      "##冥想10分钟每天喝": 2950,
      "##1杯酸奶调节": 2951,
      "##每次1520分钟保持": 2952,
      "##天再吃每周吃咸菜不超1次": 2953,
      "##天分810次饮水": 2954,
      "##玫瑰花茶疏": 2955,
      "##合理规划工作": 2956,
      "##伸展缓解腰肌": 2957,
      "##松棉质裤子每天做": 2958,
      "##下再吃如蒸苹果": 2959,
      "##水通淋避免": 2960,
      "##水利水通淋避免": 2961,
      "##食如南瓜粥": 2962,
      "##食纤维建议搭配": 2963,
      "##物腹部受凉后煮生姜": 2964,
      "##吃完甜食及时": 2965,
      "##吃糖不超25克": 2966,
      "##深入耳道": 2967,
      "##鱼降血脂": 2968,
      "##降低血脂": 2969,
      "##米水洗头滋": 2970,
      "##耳勺深入耳道": 2971,
      "##超20天再吃每周吃咸菜不超1次": 2972,
      "##过多建议睡前4小时": 2973,
      "##时细嚼慢": 2974,
      "##时垫高枕头侧": 2975,
      "##时搭配清汤": 2976,
      "##时热敷太阳穴缓解": 2977,
      "##时保持平视": 2978,
      "##时喝生姜红枣水热敷腹部": 2979,
      "##音乐配合按揉": 2980,
      "##音量不超60可": 2981,
      "##可听舒缓轻": 2982,
      "##可泡枸杞": 2983,
      "##穴助眠": 2984,
      "##补脑益智": 2985,
      "##腿部易静脉曲张": 2986,
      "##腿10分钟促进血液回流": 2987,
      "##腿部拉伸运动睡前泡脚10分钟促进": 2988,
      "##窗边易受风头痛": 2989,
      "##窗帘睡觉避免头部": 2990,
      "##大便易干结": 2991,
      "##经络不通建议拉上": 2992,
      "##焦虑失眠": 2993,
      "##生素流失建议多": 2994,
      "##生肠胃易感染": 2995,
      "##腰部易酸痛": 2996,
      "##受力不均建议每天穿高跟鞋": 2997,
      "##40分钟起身活动": 2998,
      "##回家后热敷腰部做": 2999,
      "##热主食如南瓜粥": 3000,
      "##敷之后热敷促进恢复": 3001,
      "##敷补水面膜修": 3002,
      "##做菜少放调味品改吃清蒸": 3003,
      "##做臀桥运动": 3004,
      "##猫式伸展缓解腰肌": 3005,
      "##式脂肪酸伤血管": 3006,
      "##能减弱建议每天做深呼吸": 3007,
      "##啡因和电解质建议少喝改喝淡": 3008,
      "##盐水或椰子水": 3009,
      "##或两侧交替睡晨起": 3010,
      "##或加装挡风板": 3011,
      "##手部易粗糙": 3012,
      "##手及时涂抹": 3013,
      "##肾且损毛囊建议每": 3014,
      "##出风口方向": 3015,
      "##压建议每40分钟起身活动": 3016,
      "##环境光每天吃1": 3017,
      "##卧位睡姿减轻心脏": 3018,
      "##卧减轻症状": 3019,
      "##替烧烤降低血脂": 3020,
      "##人朋友交流": 3021,
      "##人工泪液": 3022,
      "##流通减少病菌滋": 3023,
      "##聊天疏解情绪": 3024,
      "##上避免长时间直吹头顶": 3025,
      "##阳气建议调至摇头模式": 3026,
      "##将水果温一": 3027,
      "##温水洗碗洗完": 3028,
      "##涌泉穴助眠": 3029,
      "##宵每周吃1次清蒸鱼代": 3030,
      "##化痰祛湿": 3031,
      "##记忆力下降": 3032,
      "##细菌建议自备": 3033,
      "##洗空调滤网": 3034,
      "##洗餐具选择": 3035,
      "##正规商家减少": 3036,
      "##便秘加重": 3037,
      "##干眼症建议每20分钟眨眼": 3038,
      "##阴润肺": 3039,
      "##阴建议多喝麦冬胖大海茶润喉避免": 3040,
      "##多次小口饮用": 3041,
      "##梨滋阴润肺": 3042,
      "##酸分泌过多建议睡前4小时": 3043,
      "##护手霜每周做1次": 3044,
      "##神经受压建议每40分钟起身活动": 3045,
      "##克左右避免空腹": 3046,
      "##口腔易生蛀牙": 3047,
      "##签轻拭避免用挖": 3048,
      "##咽减轻关节负担": 3049,
      "##咽喉经常干痛": 3050,
      "##毯护住腹部腹痛": 3051,
      "##锅底多吃白萝卜": 3052,
      "##痒发炎": 3053,
      "##亮度不超环境光每天吃1": 3054,
      "##走或慢跑增强": 3055,
      "##素沉着建议23点前入睡每天吃1片维片": 3056,
      "##点小憩20分钟补充": 3057,
      "##点晒背20分钟多吃桂圆": 3058,
      "##饿可吃少量小米粥或蒸苹果": 3059,
      "##平时用淘米水洗头滋": 3060,
      "##衡失调建议走路不看手机": 3061,
      "##吸附异味": 3062,
      "##训练10分钟每周3次快": 3063,
      "##个蛋黄": 3064,
      "##910点晒背20分钟多吃桂圆": 3065,
      "##酒23点前入睡每天吃1把枸杞": 3066,
      "##喊叫和长时间说话": 3067,
      "##抗氧化敷补水面膜修": 3068,
      "##距离15米以": 3069,
      "##且伤脾胃建议每天吃糖不超25克": 3070,
      "##且致癌建议自制": 3071,
      "##且重量不超体重5每天做": 3072,
      "##漱口早晚用含": 3073,
      "##氟牙膏刷牙": 3074,
      "##防腐剂人工泪液": 3075,
      "##监测血压": 3076,
      "##网膜建议调至护眼模式": 3077,
      "##叶黄素": 3078,
      "##渐进减重每天保证": 3079,
      "##优质蛋白如鱼肉": 3080,
      "##尔尿频尿急": 3081,
      "##肩颈易劳损": 3082,
      "##收缩建议少吃油炸食品": 3083,
      "##英茶养肝护肝": 3084,
      "##靠墙夹背运动": 3085,
      "##78小时睡眠中午": 3086,
      "##息致心率加快": 3087,
      "##采用半卧位睡姿减轻心脏": 3088,
      "##年染发不超2次": 3089,
      "##斑暗沉": 3090,
      "##操睡前用热毛巾敷颈椎10分钟": 3091,
      "##髓建议合理规划工作": 3092,
      "##津液不足建议每天晨起空腹喝3": 3093,
      "##饪食物加热剩菜时加盖": 3094,
      "##留气孔减少营养": 3095,
      "##容易乏力头晕": 3096,
      "##建议看手机时保持平视": 3097,
      "##建议减少炸鸡": 3098,
      "##建议中午小憩15分钟": 3099,
      "##建议双侧交替咀嚼每天按摩": 3100,
      "长期看手机走路易崴脚": 3101,
      "长期吹风扇直吹头部易": 3102,
      "长期戴耳机耳朵经常发闷": 3103,
      "长期久坐不活动臀部易": 3104,
      "长期穿高跟鞋腰部易酸痛": 3105,
      "长期看电子屏幕眨眼": 3106,
      "长期睡在窗边易受风头痛": 3107,
      "长期低头看手机颈椎": 3108,
      "长期背单肩包肩颈易劳损": 3109,
      "长期憋尿偶尔尿频尿急": 3110,
      "频繁染发发质干枯": 3111,
      "频繁喝奶茶血糖易升高": 3112,
      "##建议每天戴耳机不超过1小时": 3113,
      "##建议每天开窗通风1次定期清": 3114,
      "##建议每天保证78小时睡眠中午": 3115,
      "##建议每天和家人朋友交流": 3116,
      "##避免油腻甜食": 3117,
      "##避免一次性大量喝水": 3118,
      "经常大声说话声带易受损": 3119,
      "经常喝功能性饮料心脏易不适": 3120,
      "经常用空调不通风室内易有": 3121,
      "经常吹空调不盖被子腹部易": 3122,
      "##睡前拉伸放松身心": 3123,
      "##食物肠胃易腹泻": 3124,
      "##不超4小时回家后热敷腰部做": 3125,
      "缺乏开窗通风室内易缺": 3126,
      "缺乏喝水大便易干结": 3127,
      "缺乏社交情绪易低": 3128,
      "缺乏晒太阳经常手脚": 3129,
      "缺乏午睡心脏负担加重": 3130,
      "##1次仅清理外耳道口可用棉": 3131,
      "##每周清洁1次仅清理外耳道口可用棉": 3132,
      "##肠胃建议吃火锅时搭配清汤": 3133,
      "##每天吃23颗核桃": 3134,
      "##直吹冷风头痛时热敷太阳穴缓解": 3135,
      "##手机入睡困难": 3136,
      "频繁吃甜食口腔易生蛀牙": 3137,
      "频繁吃辛辣火锅肠胃易上火": 3138,
      "频繁吃高油零食胆囊": 3139,
      "频繁吃生冷水果肠胃易不适": 3140,
      "频繁吃外卖餐具不卫": 3141,
      "频繁吃夜宵烧烤血脂易升高": 3142,
      "##搭配新鲜蔬菜": 3143,
      "##00温水白天分810次饮水": 3144,
      "##零食喉咙易生痰": 3145,
      "长期用空调吹风口直吹面部": 3146,
      "长期用嗓过度咽喉经常干痛": 3147,
      "长期用电脑屏幕过亮": 3148,
      "长期用冷水洗碗手部易粗糙": 3149,
      "长期用微波炉加热食物营养": 3150,
      "##耳道黏膜建议每周清洁1次仅清理外耳道口可用棉": 3151,
      "##伤肝建议戒酒23点前入睡每天吃1把枸杞": 3152,
      "##时间23点前入睡每天吃23颗核桃": 3153,
      "##餐具吃外卖前用开水烫": 3154,
      "##皮肤建议用温水洗碗洗完": 3155,
      "##皮肤测试平时用淘米水洗头滋": 3156,
      "##建议睡前3小时不进食若饥": 3157,
      "##每天喝玉米须水利水通淋避免": 3158,
      "长期吃辛辣调味品胃部易": 3159,
      "长期吃腌制咸菜亚硝": 3160,
      "长期吃油炸食品血脂易升高": 3161,
      "长期吃方便食品便秘加重": 3162,
      "经常吃油炸零食喉咙易生痰": 3163,
      "经常吃生冷食物肠胃易腹泻": 3164,
      "经常吃重口味零食血压易升高": 3165,
      "久坐不动致下肢循环差建议每天做": 3166,
      "熬夜加喝酒伤肝建议戒酒23点前入睡每天吃1把枸杞": 3167,
      "熬夜伤脑髓建议合理规划工作": 3168,
      "熬夜伤肝致色素沉着建议23点前入睡每天吃1片维片": 3169,
      "睡前进食加重肠胃负担": 3170,
      "睡前吃太饱夜间易反酸": 3171,
      "睡前频繁刷手机入睡困难": 3172,
      "空调直吹面部致面瘫风险": 3173,
      "##配合搓揉手脚促进循环": 3174,
      "##补充电解质避免心慌": 3175,
      "##室内空气流通减少病菌滋": 3176,
      "##及时排出每天喝玉米须水利水通淋避免": 3177,
      "##染发前做皮肤测试平时用淘米水洗头滋": 3178,
      "##咸菜腌制超20天再吃每周吃咸菜不超1次": 3179,
      "##每天做颈椎米字操睡前用热毛巾敷颈椎10分钟": 3180,
      "频繁熬夜喝酒肝脏易受损": 3181,
      "频繁熬夜赶工记忆力下降": 3182,
      "频繁熬夜皮肤易长斑暗沉": 3183,
      "##10次每天用热毛巾敷眼10分钟滴无": 3184,
      "1把蓝莓补脑益智": 3185,
      "1把菠菜补充叶黄素": 3186,
      "单侧睡觉致血液循环不畅建议仰卧": 3187,
      "单侧咀嚼伤咬肌和颞颌关节": 3188,
      "每天睡眠时间不足6小时": 3189,
      "每天喝很少水经常喝碳": 3190,
      "油炸食品含反式脂肪酸伤血管": 3191,
      "油炸零食生痰湿建议少吃薯片": 3192,
      "甜食致胃酸分泌过多建议睡前4小时": 3193,
      "甜食易致龋齿且伤脾胃建议每天吃糖不超25克": 3194,
      "生冷水果伤脾阳建议将水果温一": 3195,
      "##高油建议少喝自制奶茶": 3196,
      "##少量红茶不加糖搭配燕麦": 3197,
      "##增加饱腹感": 3198,
      "##增加建议调整出风口方向": 3199,
      "##电子设备可听舒缓轻": 3200,
      "##致肝郁建议睡前冥想10分钟每天喝": 3201,
      "##致肝气郁结建议每天和家人朋友交流": 3202,
      "##1113点小憩20分钟补充": 3203,
      "##1小时放下电子设备可听舒缓轻": 3204,
      "##气建议有尿意及时排出每天喝玉米须水利水通淋避免": 3205,
      "##社交活动散步聊天疏解情绪": 3206,
      "##按揉听宫穴": 3207,
      "##大声说话每天吃12颗梨滋阴润肺": 3208,
      "##肌肉紧张建议换双肩包且重量不超体重5每天做": 3209,
      "##手部磨砂护理": 3210,
      "##久坐压迫膀胱": 3211,
      "##胖大海麦冬茶润喉避免喊叫和长时间说话": 3212,
      "##2000分多次小口饮用": 3213,
      "##纤维食物每天喝1杯酸奶调节": 3214,
      "##咬肌5分钟吃食物时细嚼慢": 3215,
      "##崴脚后48小时内冷": 3216,
      "##呼吸发声每天喝胖大海麦冬茶润喉避免喊叫和长时间说话": 3217,
      "##建议用腹式呼吸发声每天喝胖大海麦冬茶润喉避免喊叫和长时间说话": 3218,
      "##建议戒掉夜宵每周吃1次清蒸鱼代": 3219,
      "##每天按摩面部穴位促进循环": 3220,
      "长期单侧睡觉脸部易浮肿": 3221,
      "长期单侧咀嚼食物脸部不对称": 3222,
      "频繁掏耳伤耳道黏膜建议每周清洁1次仅清理外耳道口可用棉": 3223,
      "频繁掏耳朵耳道易瘙痒发炎": 3224,
      "经常穿紧身裤腿部易静脉曲张": 3225,
      "经常穿露脐装腹部易受凉": 3226,
      "缺乏运动下肢易水肿": 3227,
      "##15分钟每周参加1次社交活动散步聊天疏解情绪": 3228,
      "久坐致坐骨神经受压建议每40分钟起身活动": 3229,
      "久坐致肺功能减弱建议每天做深呼吸": 3230,
      "空调房不盖被致腹痛建议盖薄": 3231,
      "空调房密闭致异味建议每天开窗通风1次定期清": 3232,
      "1颗番茄抗氧化敷补水面膜修": 3233,
      "1杯蒲公英茶养肝护肝": 3234,
      "1个苹果促进胆囊排空": 3235,
      "久戴耳机伤耳窍建议每天戴耳机不超过1小时": 3236,
      "低头伤颈椎建议看手机时保持平视": 3237,
      "冷水伤手部皮肤建议用温水洗碗洗完": 3238,
      "功能性饮料含咖啡因和电解质建议少喝改喝淡": 3239,
      "勾脚运动各20次睡前抬高双": 3240,
      "午时不休息致心率加快": 3241,
      "单肩包致单侧肌肉紧张建议换双肩包且重量不超体重5每天做": 3242,
      "压力大经常焦虑失眠": 3243,
      "咸菜伤肠胃且致癌建议自制": 3244,
      "外卖餐具易有细菌建议自备": 3245,
      "夜宵烧烤致甘油三酯升高": 3246,
      "大声说话伤声带建议用腹式呼吸发声每天喝胖大海麦冬茶润喉避免喊叫和长时间说话": 3247,
      "奶茶高糖高油建议少喝自制奶茶": 3248,
      "密闭空间致氧气不足建议每天开窗通风2次": 3249,
      "少晒太阳易致阳气不足建议每天910点晒背20分钟多吃桂圆": 3250,
      "屏幕过亮伤视网膜建议调至护眼模式": 3251,
      "建议少吃冰饮": 3252,
      "微波加热致维生素流失建议多": 3253,
      "憋尿伤肾气建议有尿意及时排出每天喝玉米须水利水通淋避免": 3254,
      "方便食品缺乏膳食纤维建议搭配": 3255,
      "染发剂伤肝肾且损毛囊建议每": 3256,
      "每餐吃温热主食如南瓜粥": 3257,
      "油条摄入多吃蒸": 3258,
      "火锅辛辣刺激肠胃建议吃火锅时搭配清汤": 3259,
      "炖的食物每周吃1次深海鱼降血脂": 3260,
      "焦虑易导致肝郁建议睡前冥想10分钟每天喝": 3261,
      "煮梨每天吃200克左右避免空腹": 3262,
      "煮方式烹饪食物加热剩菜时加盖": 3263,
      "独处过久致肝气郁结建议每天和家人朋友交流": 3264,
      "生菜清热解腻饭后喝酸奶护胃": 3265,
      "用嗓过度伤肺阴建议多喝麦冬胖大海茶润喉避免": 3266,
      "白煮的食物饭后喝小米粥养胃": 3267,
      "白萝卜煮水喝化痰祛湿": 3268,
      "眨眼少致干眼症建议每20分钟眨眼": 3269,
      "睡眠不足伤气血建议每天保证78小时睡眠中午": 3270,
      "碳酸饮料伤脾胃建议每天饮水15002000分多次小口饮用": 3271,
      "窗边吹风致头部经络不通建议拉上": 3272,
      "紧身裤压迫静脉建议穿宽松棉质裤子每天做": 3273,
      "红薯等粗纤维食物每天喝1杯酸奶调节": 3274,
      "红豆补气血避免空腹运动": 3275,
      "缺水致肠道津液不足建议每天晨起空腹喝3": 3276,
      "羊肉等温性食物配合搓揉手脚促进循环": 3277,
      "节食伤气血建议循序渐进减重每天保证": 3278,
      "花椒刺激胃黏膜建议做菜少放调味品改吃清蒸": 3279,
      "蓝光伤肝血建议睡前1小时放下电子设备可听舒缓轻": 3280,
      "走路看手机致平衡失调建议走路不看手机": 3281,
      "辣条多吃原味坚果": 3282,
      "过度节食减肥容易乏力头晕": 3283,
      "零食高盐致血压波动建议少吃薯片": 3284,
      "露脐装伤脾阳建议穿高腰衣物腹部受凉后煮生姜": 3285,
      "风扇直吹伤头部阳气建议调至摇头模式": 3286,
      "高油零食致胆囊收缩建议少吃油炸食品": 3287,
      "高跟鞋易致腰椎受力不均建议每天穿高跟鞋": 3288,
      "黄瓜条每天监测血压": 3289,
      "##用纯牛奶和少量红茶不加糖搭配燕麦": 3290,
      "##用冷热毛巾交替敷脸5分钟缓解浮肿": 3291,
      "##用活性炭吸附异味": 3292,
      "##红糖水喝热敷肚脐缓解不适": 3293,
      "##不吃甜食反酸时垫高枕头侧": 3294,
      "##肝理气配合睡前拉伸放松身心": 3295,
      "##每次1520分钟保持室内空气流通减少病菌滋": 3296,
      "##玫瑰花茶疏肝理气配合睡前拉伸放松身心": 3297,
      "##吃完甜食及时漱口早晚用含": 3298,
      "##时喝生姜红枣水热敷腹部缓解": 3299,
      "##音乐配合按揉涌泉穴助眠": 3300,
      "##音量不超60可按揉听宫穴": 3301,
      "##腿部拉伸运动睡前泡脚10分钟促进静脉回流": 3302,
      "##窗帘睡觉避免头部直吹冷风头痛时热敷太阳穴缓解": 3303,
      "##做臀桥运动10次促进臀部血液循环": 3304,
      "##猫式伸展缓解腰肌紧张": 3305,
      "##盐水或椰子水补充电解质避免心慌": 3306,
      "##或两侧交替睡晨起用冷热毛巾交替敷脸5分钟缓解浮肿": 3307,
      "##或加装挡风板每天按摩面部穴位促进循环": 3308,
      "##手及时涂抹护手霜每周做1次": 3309,
      "##上避免长时间直吹头顶和后颈": 3310,
      "##洗空调滤网用活性炭吸附异味": 3311,
      "##洗餐具选择正规商家减少": 3312,
      "##签轻拭避免用挖耳勺深入耳道": 3313,
      "##毯护住腹部腹痛时喝生姜红枣水热敷腹部缓解": 3314,
      "##亮度不超环境光每天吃1个蛋黄": 3315,
      "##走或慢跑增强肺活量": 3316,
      "##饿可吃少量小米粥或蒸苹果避免油腻甜食": 3317,
      "##训练10分钟每周3次快走或慢跑增强肺活量": 3318,
      "##距离15米以上避免长时间直吹头顶和后颈": 3319,
      "##靠墙夹背运动放松肩背肌肉": 3320,
      "##采用半卧位睡姿减轻心脏压力": 3321,
      "##年染发不超2次染发前做皮肤测试平时用淘米水洗头滋": 3322,
      "##留气孔减少营养损失": 3323,
      "##建议中午小憩15分钟采用半卧位睡姿减轻心脏压力": 3324,
      "##建议双侧交替咀嚼每天按摩咬肌5分钟吃食物时细嚼慢": 3325,
      "长期吹风扇直吹头部易头痛": 3326,
      "长期久坐不活动臀部易发麻": 3327,
      "长期看电子屏幕眨眼次数减少": 3328,
      "长期低头看手机颈椎不适": 3329,
      "频繁染发发质干枯易断": 3330,
      "经常用空调不通风室内易有异味": 3331,
      "经常吹空调不盖被子腹部易着凉": 3332,
      "##不超4小时回家后热敷腰部做猫式伸展缓解腰肌紧张": 3333,
      "缺乏开窗通风室内易缺氧": 3334,
      "缺乏社交情绪易低落": 3335,
      "缺乏晒太阳经常手脚冰凉": 3336,
      "频繁吃高油零食胆囊易不适": 3337,
      "频繁吃外卖餐具不卫生肠胃易感染": 3338,
      "##00温水白天分810次饮水避免一次性大量喝水": 3339,
      "长期用电脑屏幕过亮眼睛易疲劳": 3340,
      "长期用微波炉加热食物营养流失": 3341,
      "##餐具吃外卖前用开水烫洗餐具选择正规商家减少": 3342,
      "##建议睡前3小时不进食若饥饿可吃少量小米粥或蒸苹果避免油腻甜食": 3343,
      "长期吃辛辣调味品胃部易灼痛": 3344,
      "长期吃腌制咸菜亚硝酸盐超标": 3345,
      "久坐不动致下肢循环差建议每天做踮脚": 3346,
      "熬夜伤脑髓建议合理规划工作时间23点前入睡每天吃23颗核桃": 3347,
      "睡前进食加重肠胃负担建议睡前3小时不进食若饥饿可吃少量小米粥或蒸苹果避免油腻甜食": 3348,
      "空调直吹面部致面瘫风险增加建议调整出风口方向": 3349,
      "##咸菜腌制超20天再吃每周吃咸菜不超1次搭配新鲜蔬菜": 3350,
      "##10次每天用热毛巾敷眼10分钟滴无防腐剂人工泪液": 3351,
      "单侧睡觉致血液循环不畅建议仰卧或两侧交替睡晨起用冷热毛巾交替敷脸5分钟缓解浮肿": 3352,
      "单侧咀嚼伤咬肌和颞颌关节建议双侧交替咀嚼每天按摩咬肌5分钟吃食物时细嚼慢": 3353,
      "每天喝很少水经常喝碳酸饮料": 3354,
      "油炸食品含反式脂肪酸伤血管建议减少炸鸡": 3355,
      "甜食致胃酸分泌过多建议睡前4小时不吃甜食反酸时垫高枕头侧": 3356,
      "甜食易致龋齿且伤脾胃建议每天吃糖不超25克吃完甜食及时漱口早晚用含": 3357,
      "生冷水果伤脾阳建议将水果温一下再吃如蒸苹果": 3358,
      "##1113点小憩20分钟补充精力": 3359,
      "##崴脚后48小时内冷敷之后热敷促进恢复": 3360,
      "##建议戒掉夜宵每周吃1次清蒸鱼代替烧烤降低血脂": 3361,
      "频繁掏耳伤耳道黏膜建议每周清洁1次仅清理外耳道口可用棉签轻拭避免用挖耳勺深入耳道": 3362,
      "久坐致坐骨神经受压建议每40分钟起身活动做臀桥运动10次促进臀部血液循环": 3363,
      "久坐致肺功能减弱建议每天做深呼吸训练10分钟每周3次快走或慢跑增强肺活量": 3364,
      "空调房不盖被致腹痛建议盖薄毯护住腹部腹痛时喝生姜红枣水热敷腹部缓解": 3365,
      "空调房密闭致异味建议每天开窗通风1次定期清洗空调滤网用活性炭吸附异味": 3366,
      "1颗番茄抗氧化敷补水面膜修复皮肤": 3367,
      "久戴耳机伤耳窍建议每天戴耳机不超过1小时音量不超60可按揉听宫穴": 3368,
      "低头伤颈椎建议看手机时保持平视每天做颈椎米字操睡前用热毛巾敷颈椎10分钟": 3369,
      "冷水伤手部皮肤建议用温水洗碗洗完手及时涂抹护手霜每周做1次": 3370,
      "功能性饮料含咖啡因和电解质建议少喝改喝淡盐水或椰子水补充电解质避免心慌": 3371,
      "勾脚运动各20次睡前抬高双腿10分钟促进血液回流": 3372,
      "午时不休息致心率加快建议中午小憩15分钟采用半卧位睡姿减轻心脏压力": 3373,
      "单肩包致单侧肌肉紧张建议换双肩包且重量不超体重5每天做靠墙夹背运动放松肩背肌肉": 3374,
      "咸菜伤肠胃且致癌建议自制咸菜腌制超20天再吃每周吃咸菜不超1次搭配新鲜蔬菜": 3375,
      "外卖餐具易有细菌建议自备餐具吃外卖前用开水烫洗餐具选择正规商家减少": 3376,
      "夜宵烧烤致甘油三酯升高建议戒掉夜宵每周吃1次清蒸鱼代替烧烤降低血脂": 3377,
      "奶茶高糖高油建议少喝自制奶茶用纯牛奶和少量红茶不加糖搭配燕麦": 3378,
      "密闭空间致氧气不足建议每天开窗通风2次每次1520分钟保持室内空气流通减少病菌滋": 3379,
      "屏幕过亮伤视网膜建议调至护眼模式亮度不超环境光每天吃1个蛋黄": 3380,
      "微波加热致维生素流失建议多用蒸": 3381,
      "憋尿伤肾气建议有尿意及时排出每天喝玉米须水利水通淋避免久坐压迫膀胱": 3382,
      "方便食品缺乏膳食纤维建议搭配芹菜": 3383,
      "染发剂伤肝肾且损毛囊建议每年染发不超2次染发前做皮肤测试平时用淘米水洗头滋": 3384,
      "火锅辛辣刺激肠胃建议吃火锅时搭配清汤锅底多吃白萝卜": 3385,
      "焦虑易导致肝郁建议睡前冥想10分钟每天喝玫瑰花茶疏肝理气配合睡前拉伸放松身心": 3386,
      "煮梨每天吃200克左右避免空腹吃": 3387,
      "煮方式烹饪食物加热剩菜时加盖留气孔减少营养损失": 3388,
      "独处过久致肝气郁结建议每天和家人朋友交流15分钟每周参加1次社交活动散步聊天疏解情绪": 3389,
      "用嗓过度伤肺阴建议多喝麦冬胖大海茶润喉避免大声说话每天吃12颗梨滋阴润肺": 3390,
      "眨眼少致干眼症建议每20分钟眨眼10次每天用热毛巾敷眼10分钟滴无防腐剂人工泪液": 3391,
      "睡眠不足伤气血建议每天保证78小时睡眠中午1113点小憩20分钟补充精力": 3392,
      "碳酸饮料伤脾胃建议每天饮水15002000分多次小口饮用可泡枸杞": 3393,
      "窗边吹风致头部经络不通建议拉上窗帘睡觉避免头部直吹冷风头痛时热敷太阳穴缓解": 3394,
      "紧身裤压迫静脉建议穿宽松棉质裤子每天做腿部拉伸运动睡前泡脚10分钟促进静脉回流": 3395,
      "红薯等粗纤维食物每天喝1杯酸奶调节肠道菌群": 3396,
      "缺水致肠道津液不足建议每天晨起空腹喝300温水白天分810次饮水避免一次性大量喝水": 3397,
      "节食伤气血建议循序渐进减重每天保证优质蛋白如鱼肉": 3398,
      "蓝光伤肝血建议睡前1小时放下电子设备可听舒缓轻音乐配合按揉涌泉穴助眠": 3399,
      "走路看手机致平衡失调建议走路不看手机崴脚后48小时内冷敷之后热敷促进恢复": 3400,
      "露脐装伤脾阳建议穿高腰衣物腹部受凉后煮生姜红糖水喝热敷肚脐缓解不适": 3401,
      "风扇直吹伤头部阳气建议调至摇头模式距离15米以上避免长时间直吹头顶和后颈": 3402,
      "高油零食致胆囊收缩建议少吃油炸食品每天吃1根黄瓜": 3403,
      "高跟鞋易致腰椎受力不均建议每天穿高跟鞋不超4小时回家后热敷腰部做猫式伸展缓解腰肌紧张": 3404,
      "空调直吹面部致面瘫风险增加建议调整出风口方向或加装挡风板每天按摩面部穴位促进循环": 3405,
      "单侧咀嚼伤咬肌和颞颌关节建议双侧交替咀嚼每天按摩咬肌5分钟吃食物时细嚼慢咽减轻关节负担": 3406,
      "甜食致胃酸分泌过多建议睡前4小时不吃甜食反酸时垫高枕头侧卧减轻症状": 3407,
      "甜食易致龋齿且伤脾胃建议每天吃糖不超25克吃完甜食及时漱口早晚用含氟牙膏刷牙": 3408,
      "冷水伤手部皮肤建议用温水洗碗洗完手及时涂抹护手霜每周做1次手部磨砂护理": 3409,
      "外卖餐具易有细菌建议自备餐具吃外卖前用开水烫洗餐具选择正规商家减少风险": 3410,
      "奶茶高糖高油建议少喝自制奶茶用纯牛奶和少量红茶不加糖搭配燕麦增加饱腹感": 3411,
      "密闭空间致氧气不足建议每天开窗通风2次每次1520分钟保持室内空气流通减少病菌滋生": 3412,
      "染发剂伤肝肾且损毛囊建议每年染发不超2次染发前做皮肤测试平时用淘米水洗头滋养发质": 3413
    },
    "merges": [
      [
        "##建",
        "##议"
      ],
      [
        "##每",
        "##天"
      ],
      [
        "长",
        "##期"
      ],
      [
        "##分",
        "##钟"
      ],
      [
        "频",
        "##繁"
      ],
      [
        "##建议",
        "##每天"
      ],
      [
        "##0",
        "##分钟"
      ],
      [
        "##避",
        "##免"
      ],
      [
        "经",
        "##常"
      ],
      [
        "##部",
        "##易"
      ],
      [
        "##睡",
        "##前"
      ],
      [
        "##食",
        "##物"
      ],
      [
        "##不",
        "##超"
      ],
      [
        "##小",
        "##时"
      ],
      [
        "缺",
        "##乏"
      ],
      [
        "##1",
        "##次"
      ],
      [
        "##每",
        "##周"
      ],
      [
        "##运",
        "##动"
      ],
      [
        "##肠",
        "##胃"
      ],
      [
        "##促",
        "##进"
      ],
      [
        "##每天",
        "##吃"
      ],
      [
        "##1",
        "##0分钟"
      ],
      [
        "##直",
        "##吹"
      ],
      [
        "##手",
        "##机"
      ],
      [
        "频繁",
        "##吃"
      ],
      [
        "##不",
        "##适"
      ],
      [
        "##不",
        "##足"
      ],
      [
        "##搭",
        "##配"
      ],
      [
        "##看",
        "##手机"
      ],
      [
        "##减",
        "##少"
      ],
      [
        "##1",
        "##5"
      ],
      [
        "##0",
        "##0"
      ],
      [
        "##食",
        "##品"
      ],
      [
        "##伤",
        "##脾"
      ],
      [
        "##经",
        "##常"
      ],
      [
        "##零",
        "##食"
      ],
      [
        "##热",
        "##敷"
      ],
      [
        "##缓",
        "##解"
      ],
      [
        "##循",
        "##环"
      ],
      [
        "##升",
        "##高"
      ],
      [
        "##多",
        "##吃"
      ],
      [
        "##甜",
        "##食"
      ],
      [
        "##建议",
        "##少"
      ],
      [
        "长期",
        "##用"
      ],
      [
        "##每天吃",
        "##1"
      ],
      [
        "##空",
        "##调"
      ],
      [
        "##易",
        "##升高"
      ],
      [
        "##1",
        "##0"
      ],
      [
        "##血",
        "##脂"
      ],
      [
        "##耳",
        "##道"
      ],
      [
        "##伤",
        "##肝"
      ],
      [
        "##时",
        "##间"
      ],
      [
        "##通",
        "##风"
      ],
      [
        "##饮",
        "##料"
      ],
      [
        "##入",
        "##睡"
      ],
      [
        "##餐",
        "##具"
      ],
      [
        "##说",
        "##话"
      ],
      [
        "##2",
        "##3"
      ],
      [
        "##2",
        "##0分钟"
      ],
      [
        "##皮",
        "##肤"
      ],
      [
        "##颈",
        "##椎"
      ],
      [
        "##建议",
        "##睡前"
      ],
      [
        "##每天",
        "##喝"
      ],
      [
        "长期",
        "##吃"
      ],
      [
        "经常",
        "##吃"
      ],
      [
        "##肠胃",
        "##易"
      ],
      [
        "久",
        "##坐"
      ],
      [
        "熬",
        "##夜"
      ],
      [
        "睡",
        "##前"
      ],
      [
        "空",
        "##调"
      ],
      [
        "##油",
        "##炸"
      ],
      [
        "##红",
        "##枣"
      ],
      [
        "##加",
        "##热"
      ],
      [
        "##加",
        "##重"
      ],
      [
        "##配",
        "##合"
      ],
      [
        "##腹",
        "##部"
      ],
      [
        "##吹",
        "##风"
      ],
      [
        "##空",
        "##腹"
      ],
      [
        "##易",
        "##致"
      ],
      [
        "##易",
        "##受"
      ],
      [
        "##减",
        "##轻"
      ],
      [
        "##睡",
        "##觉"
      ],
      [
        "##前",
        "##入睡"
      ],
      [
        "##气",
        "##血"
      ],
      [
        "##心",
        "##脏"
      ],
      [
        "##水",
        "##果"
      ],
      [
        "##水",
        "##洗"
      ],
      [
        "##血",
        "##压"
      ],
      [
        "##血",
        "##液"
      ],
      [
        "##交",
        "##替"
      ],
      [
        "##戴",
        "##耳"
      ],
      [
        "##头",
        "##部"
      ],
      [
        "##头",
        "##痛"
      ],
      [
        "##补",
        "##充"
      ],
      [
        "##穿",
        "##高"
      ],
      [
        "##静",
        "##脉"
      ],
      [
        "##开",
        "##窗"
      ],
      [
        "##室",
        "##内"
      ],
      [
        "##胆",
        "##囊"
      ],
      [
        "##生",
        "##姜"
      ],
      [
        "##跟",
        "##鞋"
      ],
      [
        "##热",
        "##毛"
      ],
      [
        "##单",
        "##侧"
      ],
      [
        "##及",
        "##时"
      ],
      [
        "##活",
        "##动"
      ],
      [
        "##太",
        "##阳"
      ],
      [
        "##苹",
        "##果"
      ],
      [
        "##烧",
        "##烤"
      ],
      [
        "##染",
        "##发"
      ],
      [
        "##熬",
        "##夜"
      ],
      [
        "##声",
        "##说话"
      ],
      [
        "##反",
        "##酸"
      ],
      [
        "##辛",
        "##辣"
      ],
      [
        "##膜",
        "##建议"
      ],
      [
        "##咀",
        "##嚼"
      ],
      [
        "##负",
        "##担"
      ],
      [
        "##异",
        "##味"
      ],
      [
        "##点",
        "##前入睡"
      ],
      [
        "##面",
        "##部"
      ],
      [
        "##肩",
        "##包"
      ],
      [
        "##咸",
        "##菜"
      ],
      [
        "##建议",
        "##每"
      ],
      [
        "##每天",
        "##做"
      ],
      [
        "频繁",
        "##熬夜"
      ],
      [
        "##每周",
        "##吃"
      ],
      [
        "##不足",
        "##建议每天"
      ],
      [
        "##伤脾",
        "##阳"
      ],
      [
        "##建议少",
        "##吃"
      ],
      [
        "##10",
        "##次"
      ],
      [
        "##23",
        "##点前入睡"
      ],
      [
        "##戴耳",
        "##机"
      ],
      [
        "##开窗",
        "##通风"
      ],
      [
        "##热毛",
        "##巾"
      ],
      [
        "1",
        "##把"
      ],
      [
        "单",
        "##侧"
      ],
      [
        "每",
        "##天"
      ],
      [
        "油",
        "##炸"
      ],
      [
        "甜",
        "##食"
      ],
      [
        "生",
        "##冷"
      ],
      [
        "##茶",
        "##润"
      ],
      [
        "##高",
        "##油"
      ],
      [
        "##少",
        "##量"
      ],
      [
        "##喝",
        "##水"
      ],
      [
        "##喝",
        "##酒"
      ],
      [
        "##自",
        "##制"
      ],
      [
        "##奶",
        "##茶"
      ],
      [
        "##用",
        "##热毛巾"
      ],
      [
        "##量",
        "##不超"
      ],
      [
        "##不",
        "##盖"
      ],
      [
        "##麦",
        "##冬"
      ],
      [
        "##增",
        "##加"
      ],
      [
        "##腹",
        "##痛"
      ],
      [
        "##腹",
        "##部易"
      ],
      [
        "##调",
        "##味"
      ],
      [
        "##调",
        "##至"
      ],
      [
        "##易",
        "##生"
      ],
      [
        "##易",
        "##有"
      ],
      [
        "##易",
        "##不适"
      ],
      [
        "##易",
        "##反酸"
      ],
      [
        "##电",
        "##子"
      ],
      [
        "##电",
        "##解"
      ],
      [
        "##屏",
        "##幕"
      ],
      [
        "##眨",
        "##眼"
      ],
      [
        "##致",
        "##肝"
      ],
      [
        "##睡",
        "##眠"
      ],
      [
        "##1",
        "##1"
      ],
      [
        "##1",
        "##小时"
      ],
      [
        "##气",
        "##建议"
      ],
      [
        "##气",
        "##不足建议每天"
      ],
      [
        "##拉",
        "##伸"
      ],
      [
        "##放",
        "##松"
      ],
      [
        "##身",
        "##裤"
      ],
      [
        "##下",
        "##肢"
      ],
      [
        "##下",
        "##降"
      ],
      [
        "##水",
        "##喝"
      ],
      [
        "##的",
        "##食物"
      ],
      [
        "##社",
        "##交"
      ],
      [
        "##情",
        "##绪"
      ],
      [
        "##煮",
        "##生姜"
      ],
      [
        "##饭",
        "##后"
      ],
      [
        "##后",
        "##热敷"
      ],
      [
        "##小",
        "##米"
      ],
      [
        "##小",
        "##憩"
      ],
      [
        "##胃",
        "##建议每天"
      ],
      [
        "##耳",
        "##朵"
      ],
      [
        "##伤",
        "##气血"
      ],
      [
        "##过",
        "##度"
      ],
      [
        "##过",
        "##亮"
      ],
      [
        "##按",
        "##揉"
      ],
      [
        "##按",
        "##摩"
      ],
      [
        "##风",
        "##险"
      ],
      [
        "##风",
        "##头痛"
      ],
      [
        "##扇",
        "##直吹"
      ],
      [
        "##紧",
        "##张"
      ],
      [
        "##大",
        "##海"
      ],
      [
        "##大",
        "##声说话"
      ],
      [
        "##生",
        "##冷"
      ],
      [
        "##饮",
        "##用"
      ],
      [
        "##饮",
        "##水"
      ],
      [
        "##受",
        "##凉"
      ],
      [
        "##4",
        "##小时"
      ],
      [
        "##回",
        "##流"
      ],
      [
        "##肌",
        "##肉"
      ],
      [
        "##能",
        "##性"
      ],
      [
        "##侧",
        "##交替"
      ],
      [
        "##浮",
        "##肿"
      ],
      [
        "##手",
        "##部"
      ],
      [
        "##手",
        "##脚"
      ],
      [
        "##久",
        "##坐"
      ],
      [
        "##压",
        "##迫"
      ],
      [
        "##晨",
        "##起"
      ],
      [
        "##5",
        "##分钟"
      ],
      [
        "##流",
        "##失"
      ],
      [
        "##活",
        "##量"
      ],
      [
        "##晒",
        "##太阳"
      ],
      [
        "##再",
        "##吃"
      ],
      [
        "##蒸",
        "##苹果"
      ],
      [
        "##肠",
        "##道"
      ],
      [
        "##宵",
        "##烧烤"
      ],
      [
        "##清",
        "##热"
      ],
      [
        "##清",
        "##蒸"
      ],
      [
        "##萝",
        "##卜"
      ],
      [
        "##外",
        "##卖"
      ],
      [
        "##声",
        "##带"
      ],
      [
        "##便",
        "##食品"
      ],
      [
        "##嗓",
        "##过度"
      ],
      [
        "##肺",
        "##活量"
      ],
      [
        "##胖",
        "##大海"
      ],
      [
        "##喉",
        "##避免"
      ],
      [
        "##2",
        "##次"
      ],
      [
        "##2",
        "##0"
      ],
      [
        "##2",
        "##00"
      ],
      [
        "##酸",
        "##奶"
      ],
      [
        "##酸",
        "##饮料"
      ],
      [
        "##薯",
        "##片"
      ],
      [
        "##纤",
        "##维"
      ],
      [
        "##保",
        "##持"
      ],
      [
        "##保",
        "##证"
      ],
      [
        "##进",
        "##食"
      ],
      [
        "##黏",
        "##膜建议"
      ],
      [
        "##咬",
        "##肌"
      ],
      [
        "##关",
        "##节"
      ],
      [
        "##脐",
        "##装"
      ],
      [
        "##刺",
        "##激"
      ],
      [
        "##火",
        "##锅"
      ],
      [
        "##发",
        "##质"
      ],
      [
        "##走",
        "##路"
      ],
      [
        "##崴",
        "##脚"
      ],
      [
        "##8",
        "##小时"
      ],
      [
        "##呼",
        "##吸"
      ],
      [
        "##长",
        "##时间"
      ],
      [
        "##模",
        "##式"
      ],
      [
        "##枸",
        "##杞"
      ],
      [
        "##腌",
        "##制"
      ],
      [
        "##中",
        "##午"
      ],
      [
        "##营",
        "##养"
      ],
      [
        "##核",
        "##桃"
      ],
      [
        "##建议",
        "##用"
      ],
      [
        "##建议",
        "##戒"
      ],
      [
        "##建议",
        "##多"
      ],
      [
        "##每天",
        "##按摩"
      ],
      [
        "长期",
        "##单侧"
      ],
      [
        "频繁",
        "##掏"
      ],
      [
        "##建议每天",
        "##做"
      ],
      [
        "##避免",
        "##空腹"
      ],
      [
        "经常",
        "##穿"
      ],
      [
        "缺乏",
        "##运动"
      ],
      [
        "##促进",
        "##循环"
      ],
      [
        "##10分钟",
        "##促进"
      ],
      [
        "##直吹",
        "##面部"
      ],
      [
        "##15",
        "##分钟"
      ],
      [
        "##伤脾",
        "##胃建议每天"
      ],
      [
        "##建议少",
        "##喝"
      ],
      [
        "##血脂",
        "##易升高"
      ],
      [
        "久坐",
        "##致"
      ],
      [
        "空调",
        "##房"
      ],
      [
        "##油炸",
        "##食品"
      ],
      [
        "##红枣",
        "##水"
      ],
      [
        "##易受",
        "##损"
      ],
      [
        "##水洗",
        "##碗"
      ],
      [
        "##血液",
        "##循环"
      ],
      [
        "##穿高",
        "##跟鞋"
      ],
      [
        "##每周吃",
        "##1次"
      ],
      [
        "##伤脾阳",
        "##建议"
      ],
      [
        "##建议少吃",
        "##薯片"
      ],
      [
        "##23点前入睡",
        "##每天吃1"
      ],
      [
        "##茶润",
        "##喉避免"
      ],
      [
        "##用热毛巾",
        "##敷"
      ],
      [
        "##不盖",
        "##被"
      ],
      [
        "##调味",
        "##品"
      ],
      [
        "##电解",
        "##质"
      ],
      [
        "##饭后",
        "##喝"
      ],
      [
        "##小米",
        "##粥"
      ],
      [
        "##能性",
        "##饮料"
      ],
      [
        "1",
        "##颗"
      ],
      [
        "1",
        "##杯"
      ],
      [
        "1",
        "##个"
      ],
      [
        "久",
        "##戴耳机"
      ],
      [
        "低",
        "##头"
      ],
      [
        "冷",
        "##水"
      ],
      [
        "功",
        "##能性饮料"
      ],
      [
        "勾",
        "##脚"
      ],
      [
        "午",
        "##时"
      ],
      [
        "单",
        "##肩包"
      ],
      [
        "压",
        "##力"
      ],
      [
        "可",
        "##煮生姜"
      ],
      [
        "咸",
        "##菜"
      ],
      [
        "外",
        "##卖"
      ],
      [
        "多",
        "##吃"
      ],
      [
        "夜",
        "##宵烧烤"
      ],
      [
        "大",
        "##声说话"
      ],
      [
        "奶",
        "##茶"
      ],
      [
        "密",
        "##闭"
      ],
      [
        "少",
        "##晒太阳"
      ],
      [
        "屏",
        "##幕"
      ],
      [
        "山",
        "##药"
      ],
      [
        "建",
        "##议"
      ],
      [
        "微",
        "##波"
      ],
      [
        "憋",
        "##尿"
      ],
      [
        "方",
        "##便食品"
      ],
      [
        "染",
        "##发"
      ],
      [
        "每",
        "##餐"
      ],
      [
        "油",
        "##条"
      ],
      [
        "火",
        "##锅"
      ],
      [
        "炖",
        "##的食物"
      ],
      [
        "炸",
        "##鸡"
      ],
      [
        "焦",
        "##虑"
      ],
      [
        "煮",
        "##梨"
      ],
      [
        "煮",
        "##方"
      ],
      [
        "独",
        "##处"
      ],
      [
        "生",
        "##食"
      ],
      [
        "生",
        "##菜"
      ],
      [
        "用",
        "##嗓过度"
      ],
      [
        "白",
        "##煮"
      ],
      [
        "白",
        "##萝卜"
      ],
      [
        "眨",
        "##眼"
      ],
      [
        "睡",
        "##眠"
      ],
      [
        "碳",
        "##酸饮料"
      ],
      [
        "窗",
        "##边"
      ],
      [
        "紧",
        "##身裤"
      ],
      [
        "红",
        "##薯"
      ],
      [
        "红",
        "##豆"
      ],
      [
        "缺",
        "##水"
      ],
      [
        "羊",
        "##肉"
      ],
      [
        "节",
        "##食"
      ],
      [
        "花",
        "##椒"
      ],
      [
        "菊",
        "##花"
      ],
      [
        "蓝",
        "##光"
      ],
      [
        "豆",
        "##腐"
      ],
      [
        "走",
        "##路"
      ],
      [
        "辣",
        "##椒"
      ],
      [
        "辣",
        "##条"
      ],
      [
        "过",
        "##度"
      ],
      [
        "零",
        "##食"
      ],
      [
        "露",
        "##脐装"
      ],
      [
        "韭",
        "##菜"
      ],
      [
        "风",
        "##扇直吹"
      ],
      [
        "高",
        "##油"
      ],
      [
        "高",
        "##跟鞋"
      ],
      [
        "黄",
        "##瓜"
      ],
      [
        "##茶",
        "##不"
      ],
      [
        "##茶",
        "##疏"
      ],
      [
        "##茶",
        "##养"
      ],
      [
        "##高",
        "##糖"
      ],
      [
        "##高",
        "##盐"
      ],
      [
        "##高",
        "##双"
      ],
      [
        "##高",
        "##枕"
      ],
      [
        "##糖",
        "##不超"
      ],
      [
        "##糖",
        "##搭配"
      ],
      [
        "##糖",
        "##易升高"
      ],
      [
        "##糖",
        "##水喝"
      ],
      [
        "##油",
        "##三"
      ],
      [
        "##油",
        "##腻"
      ],
      [
        "##少",
        "##致"
      ],
      [
        "##少",
        "##放"
      ],
      [
        "##少",
        "##水"
      ],
      [
        "##少",
        "##吃"
      ],
      [
        "##喝",
        "##淡"
      ],
      [
        "##喝",
        "##3"
      ],
      [
        "##喝",
        "##功"
      ],
      [
        "##喝",
        "##很"
      ],
      [
        "##喝",
        "##碳"
      ],
      [
        "##喝",
        "##生姜"
      ],
      [
        "##喝",
        "##奶茶"
      ],
      [
        "##喝",
        "##麦冬"
      ],
      [
        "##自",
        "##备"
      ],
      [
        "##奶",
        "##和"
      ],
      [
        "##用",
        "##纯"
      ],
      [
        "##用",
        "##开"
      ],
      [
        "##用",
        "##含"
      ],
      [
        "##用",
        "##冷"
      ],
      [
        "##用",
        "##活"
      ],
      [
        "##用",
        "##蒸"
      ],
      [
        "##用",
        "##棉"
      ],
      [
        "##用",
        "##挖"
      ],
      [
        "##用",
        "##半"
      ],
      [
        "##用",
        "##淘"
      ],
      [
        "##用",
        "##空调"
      ],
      [
        "##牛",
        "##奶和"
      ],
      [
        "##和",
        "##后"
      ],
      [
        "##和",
        "##家"
      ],
      [
        "##和",
        "##颞"
      ],
      [
        "##和",
        "##长时间"
      ],
      [
        "##和",
        "##电解质"
      ],
      [
        "##量",
        "##喝水"
      ],
      [
        "##红",
        "##茶不"
      ],
      [
        "##红",
        "##糖水喝"
      ],
      [
        "##不",
        "##动"
      ],
      [
        "##不",
        "##吃"
      ],
      [
        "##不",
        "##通"
      ],
      [
        "##不",
        "##均"
      ],
      [
        "##不",
        "##畅"
      ],
      [
        "##不",
        "##卫"
      ],
      [
        "##不",
        "##对"
      ],
      [
        "##不",
        "##休"
      ],
      [
        "##不",
        "##看手机"
      ],
      [
        "##不",
        "##通风"
      ],
      [
        "##不",
        "##活动"
      ],
      [
        "##不",
        "##进食"
      ],
      [
        "##加",
        "##盖"
      ],
      [
        "##加",
        "##装"
      ],
      [
        "##加",
        "##快"
      ],
      [
        "##加",
        "##1次"
      ],
      [
        "##加",
        "##喝酒"
      ],
      [
        "##加",
        "##糖搭配"
      ],
      [
        "##燕",
        "##麦"
      ],
      [
        "##增",
        "##强"
      ],
      [
        "##饱",
        "##腹"
      ],
      [
        "##饱",
        "##夜"
      ],
      [
        "##腹",
        "##式"
      ],
      [
        "##腹",
        "##泻"
      ],
      [
        "##感",
        "##染"
      ],
      [
        "##吹",
        "##空调"
      ],
      [
        "##空",
        "##气"
      ],
      [
        "##空",
        "##间"
      ],
      [
        "##调",
        "##节"
      ],
      [
        "##调",
        "##整"
      ],
      [
        "##调",
        "##建议"
      ],
      [
        "##盖",
        "##薄"
      ],
      [
        "##子",
        "##水"
      ],
      [
        "##子",
        "##每天做"
      ],
      [
        "##子",
        "##腹部易"
      ],
      [
        "##部",
        "##做"
      ],
      [
        "##部",
        "##拉伸"
      ],
      [
        "##部",
        "##血液循环"
      ],
      [
        "##部",
        "##不对"
      ],
      [
        "##易",
        "##导"
      ],
      [
        "##易",
        "##乏"
      ],
      [
        "##易",
        "##水"
      ],
      [
        "##易",
        "##低"
      ],
      [
        "##易",
        "##缺"
      ],
      [
        "##易",
        "##干"
      ],
      [
        "##易",
        "##瘙"
      ],
      [
        "##易",
        "##疲"
      ],
      [
        "##易",
        "##劳"
      ],
      [
        "##易",
        "##长"
      ],
      [
        "##易",
        "##断"
      ],
      [
        "##易",
        "##下降"
      ],
      [
        "##易",
        "##崴脚"
      ],
      [
        "##着",
        "##凉"
      ],
      [
        "##着",
        "##建议"
      ],
      [
        "##期",
        "##清"
      ],
      [
        "##看",
        "##电子"
      ],
      [
        "##电",
        "##脑"
      ],
      [
        "##眼",
        "##睛"
      ],
      [
        "##眼",
        "##症"
      ],
      [
        "##眼",
        "##10分钟"
      ],
      [
        "##眼",
        "##模式"
      ],
      [
        "##次",
        "##数"
      ],
      [
        "##次",
        "##小"
      ],
      [
        "##次",
        "##性"
      ],
      [
        "##次",
        "##快"
      ],
      [
        "##次",
        "##睡前"
      ],
      [
        "##次",
        "##15"
      ],
      [
        "##减",
        "##重"
      ],
      [
        "##减",
        "##弱"
      ],
      [
        "##减",
        "##肥"
      ],
      [
        "##虑",
        "##失"
      ],
      [
        "##致",
        "##心"
      ],
      [
        "##致",
        "##胃"
      ],
      [
        "##致",
        "##氧"
      ],
      [
        "##致",
        "##甘"
      ],
      [
        "##致",
        "##维"
      ],
      [
        "##致",
        "##色"
      ],
      [
        "##致",
        "##面"
      ],
      [
        "##致",
        "##平"
      ],
      [
        "##致",
        "##癌"
      ],
      [
        "##致",
        "##血压"
      ],
      [
        "##致",
        "##头部"
      ],
      [
        "##致",
        "##胆囊"
      ],
      [
        "##致",
        "##单侧"
      ],
      [
        "##致",
        "##异味"
      ],
      [
        "##致",
        "##腹痛"
      ],
      [
        "##致",
        "##下肢"
      ],
      [
        "##致",
        "##肠道"
      ],
      [
        "##致",
        "##血液循环"
      ],
      [
        "##肝",
        "##理"
      ],
      [
        "##肝",
        "##肾"
      ],
      [
        "##肝",
        "##护"
      ],
      [
        "##肝",
        "##脏"
      ],
      [
        "##郁",
        "##结"
      ],
      [
        "##郁",
        "##建议睡前"
      ],
      [
        "##睡",
        "##姿"
      ],
      [
        "##睡",
        "##在"
      ],
      [
        "##睡",
        "##心脏"
      ],
      [
        "##睡",
        "##晨起"
      ],
      [
        "##前",
        "##做"
      ],
      [
        "##前",
        "##用开"
      ],
      [
        "##冥",
        "##想"
      ],
      [
        "##1",
        "##杯"
      ],
      [
        "##1",
        "##3"
      ],
      [
        "##0",
        "##分"
      ],
      [
        "##0",
        "##可"
      ],
      [
        "##分",
        "##8"
      ],
      [
        "##分",
        "##泌"
      ],
      [
        "##每",
        "##次15"
      ],
      [
        "##天",
        "##疏"
      ],
      [
        "##天",
        "##再吃"
      ],
      [
        "##天",
        "##分8"
      ],
      [
        "##玫",
        "##瑰"
      ],
      [
        "##花",
        "##茶疏"
      ],
      [
        "##理",
        "##外"
      ],
      [
        "##理",
        "##规"
      ],
      [
        "##气",
        "##孔"
      ],
      [
        "##气",
        "##配合"
      ],
      [
        "##气",
        "##郁结"
      ],
      [
        "##合",
        "##理规"
      ],
      [
        "##拉",
        "##上"
      ],
      [
        "##伸",
        "##展"
      ],
      [
        "##放",
        "##下"
      ],
      [
        "##松",
        "##棉"
      ],
      [
        "##身",
        "##心"
      ],
      [
        "##身",
        "##活动"
      ],
      [
        "##心",
        "##慌"
      ],
      [
        "##乏",
        "##膳"
      ],
      [
        "##动",
        "##建议少吃薯片"
      ],
      [
        "##下",
        "##再吃"
      ],
      [
        "##水",
        "##通"
      ],
      [
        "##水",
        "##或"
      ],
      [
        "##水",
        "##利"
      ],
      [
        "##水",
        "##烫"
      ],
      [
        "##水",
        "##白"
      ],
      [
        "##水",
        "##面"
      ],
      [
        "##食",
        "##如"
      ],
      [
        "##食",
        "##纤维"
      ],
      [
        "##食",
        "##减肥"
      ],
      [
        "##物",
        "##腹部"
      ],
      [
        "##吃",
        "##太"
      ],
      [
        "##吃",
        "##温"
      ],
      [
        "##吃",
        "##完"
      ],
      [
        "##吃",
        "##食物"
      ],
      [
        "##吃",
        "##少量"
      ],
      [
        "##吃",
        "##清蒸"
      ],
      [
        "##吃",
        "##外卖"
      ],
      [
        "##吃",
        "##火锅"
      ],
      [
        "##吃",
        "##糖不超"
      ],
      [
        "##深",
        "##海"
      ],
      [
        "##深",
        "##入"
      ],
      [
        "##深",
        "##呼吸"
      ],
      [
        "##鱼",
        "##降"
      ],
      [
        "##鱼",
        "##代"
      ],
      [
        "##鱼",
        "##肉"
      ],
      [
        "##降",
        "##低"
      ],
      [
        "##血",
        "##管"
      ],
      [
        "##血",
        "##建议睡前"
      ],
      [
        "##血",
        "##糖易升高"
      ],
      [
        "##脂",
        "##肪"
      ],
      [
        "##交",
        "##流"
      ],
      [
        "##低",
        "##头"
      ],
      [
        "##煮",
        "##水喝"
      ],
      [
        "##后",
        "##4"
      ],
      [
        "##后",
        "##煮生姜"
      ],
      [
        "##米",
        "##须"
      ],
      [
        "##米",
        "##以"
      ],
      [
        "##米",
        "##字"
      ],
      [
        "##米",
        "##水洗"
      ],
      [
        "##养",
        "##胃"
      ],
      [
        "##养",
        "##发质"
      ],
      [
        "##胃",
        "##部易"
      ],
      [
        "##胃",
        "##黏膜建议"
      ],
      [
        "##耳",
        "##伤"
      ],
      [
        "##耳",
        "##窍"
      ],
      [
        "##耳",
        "##勺"
      ],
      [
        "##伤",
        "##脑"
      ],
      [
        "##伤",
        "##肾"
      ],
      [
        "##伤",
        "##肺"
      ],
      [
        "##伤",
        "##视"
      ],
      [
        "##伤",
        "##肠胃"
      ],
      [
        "##伤",
        "##颈椎"
      ],
      [
        "##伤",
        "##头部"
      ],
      [
        "##伤",
        "##手部"
      ],
      [
        "##伤",
        "##声带"
      ],
      [
        "##伤",
        "##咬肌"
      ],
      [
        "##伤",
        "##血管"
      ],
      [
        "##伤",
        "##耳窍"
      ],
      [
        "##超",
        "##标"
      ],
      [
        "##超",
        "##20"
      ],
      [
        "##过",
        "##久"
      ],
      [
        "##过",
        "##多"
      ],
      [
        "##过",
        "##1小时"
      ],
      [
        "##时",
        "##细"
      ],
      [
        "##时",
        "##垫"
      ],
      [
        "##时",
        "##搭配"
      ],
      [
        "##时",
        "##热敷"
      ],
      [
        "##时",
        "##保持"
      ],
      [
        "##时",
        "##喝生姜"
      ],
      [
        "##时",
        "##用淘"
      ],
      [
        "##时",
        "##加盖"
      ],
      [
        "##音",
        "##乐"
      ],
      [
        "##音",
        "##量不超"
      ],
      [
        "##6",
        "##小时"
      ],
      [
        "##6",
        "##0可"
      ],
      [
        "##可",
        "##听"
      ],
      [
        "##可",
        "##泡"
      ],
      [
        "##可",
        "##用棉"
      ],
      [
        "##可",
        "##吃少量"
      ],
      [
        "##揉",
        "##手脚"
      ],
      [
        "##听",
        "##宫"
      ],
      [
        "##穴",
        "##助"
      ],
      [
        "##穴",
        "##位"
      ],
      [
        "##穴",
        "##缓解"
      ],
      [
        "##风",
        "##口"
      ],
      [
        "##风",
        "##板"
      ],
      [
        "##头",
        "##侧"
      ],
      [
        "##头",
        "##滋"
      ],
      [
        "##头",
        "##顶"
      ],
      [
        "##头",
        "##晕"
      ],
      [
        "##头",
        "##部易"
      ],
      [
        "##头",
        "##模式"
      ],
      [
        "##把",
        "##枸杞"
      ],
      [
        "##蓝",
        "##莓"
      ],
      [
        "##补",
        "##脑"
      ],
      [
        "##补",
        "##气血"
      ],
      [
        "##补",
        "##肝肾"
      ],
      [
        "##补",
        "##水面"
      ],
      [
        "##益",
        "##智"
      ],
      [
        "##穿",
        "##宽"
      ],
      [
        "##紧",
        "##身裤"
      ],
      [
        "##裤",
        "##子每天做"
      ],
      [
        "##腿",
        "##部易"
      ],
      [
        "##腿",
        "##10分钟促进"
      ],
      [
        "##腿",
        "##部拉伸"
      ],
      [
        "##曲",
        "##张"
      ],
      [
        "##窗",
        "##边"
      ],
      [
        "##窗",
        "##帘"
      ],
      [
        "##通",
        "##减少"
      ],
      [
        "##内",
        "##冷"
      ],
      [
        "##缺",
        "##乏膳"
      ],
      [
        "##氧",
        "##化"
      ],
      [
        "##力",
        "##下降"
      ],
      [
        "##力",
        "##不均"
      ],
      [
        "##力",
        "##头晕"
      ],
      [
        "##大",
        "##便"
      ],
      [
        "##大",
        "##经常"
      ],
      [
        "##大",
        "##量喝水"
      ],
      [
        "##经",
        "##受"
      ],
      [
        "##经",
        "##络"
      ],
      [
        "##焦",
        "##虑失"
      ],
      [
        "##失",
        "##调建议"
      ],
      [
        "##繁",
        "##刷"
      ],
      [
        "##囊",
        "##建议每"
      ],
      [
        "##生",
        "##痰"
      ],
      [
        "##生",
        "##素"
      ],
      [
        "##生",
        "##肠胃易"
      ],
      [
        "##腰",
        "##椎"
      ],
      [
        "##腰",
        "##肌"
      ],
      [
        "##腰",
        "##衣"
      ],
      [
        "##腰",
        "##部易"
      ],
      [
        "##腰",
        "##部做"
      ],
      [
        "##受",
        "##力不均"
      ],
      [
        "##4",
        "##0分钟"
      ],
      [
        "##回",
        "##家"
      ],
      [
        "##家",
        "##减少"
      ],
      [
        "##热",
        "##主"
      ],
      [
        "##敷",
        "##脸"
      ],
      [
        "##敷",
        "##之"
      ],
      [
        "##敷",
        "##补水面"
      ],
      [
        "##做",
        "##菜"
      ],
      [
        "##做",
        "##臀"
      ],
      [
        "##做",
        "##1次"
      ],
      [
        "##猫",
        "##式"
      ],
      [
        "##式",
        "##烹"
      ],
      [
        "##式",
        "##脂肪"
      ],
      [
        "##缓",
        "##轻"
      ],
      [
        "##解",
        "##腻"
      ],
      [
        "##解",
        "##情绪"
      ],
      [
        "##能",
        "##减弱"
      ],
      [
        "##性",
        "##炭"
      ],
      [
        "##性",
        "##食物"
      ],
      [
        "##含",
        "##咖"
      ],
      [
        "##含",
        "##反"
      ],
      [
        "##啡",
        "##因"
      ],
      [
        "##质",
        "##蛋"
      ],
      [
        "##质",
        "##裤子每天做"
      ],
      [
        "##改",
        "##喝淡"
      ],
      [
        "##改",
        "##吃清蒸"
      ],
      [
        "##盐",
        "##水或"
      ],
      [
        "##盐",
        "##超标"
      ],
      [
        "##或",
        "##两"
      ],
      [
        "##或",
        "##慢"
      ],
      [
        "##或",
        "##蒸苹果"
      ],
      [
        "##或",
        "##加装"
      ],
      [
        "##椰",
        "##子水"
      ],
      [
        "##单",
        "##肩包"
      ],
      [
        "##脸",
        "##部易"
      ],
      [
        "##脸",
        "##部不对"
      ],
      [
        "##频",
        "##尿"
      ],
      [
        "##频",
        "##繁刷"
      ],
      [
        "##刷",
        "##牙"
      ],
      [
        "##手",
        "##霜"
      ],
      [
        "##手",
        "##部易"
      ],
      [
        "##手",
        "##及时"
      ],
      [
        "##入",
        "##多吃"
      ],
      [
        "##困",
        "##难"
      ],
      [
        "##尿",
        "##意"
      ],
      [
        "##尿",
        "##偶"
      ],
      [
        "##尿",
        "##频尿"
      ],
      [
        "##肾",
        "##且"
      ],
      [
        "##有",
        "##尿意"
      ],
      [
        "##排",
        "##空"
      ],
      [
        "##排",
        "##出"
      ],
      [
        "##出",
        "##风口"
      ],
      [
        "##玉",
        "##米须"
      ],
      [
        "##淋",
        "##避免"
      ],
      [
        "##坐",
        "##骨"
      ],
      [
        "##压",
        "##力"
      ],
      [
        "##压",
        "##建议每"
      ],
      [
        "##膀",
        "##胱"
      ],
      [
        "##液",
        "##不足建议每天"
      ],
      [
        "##循",
        "##序"
      ],
      [
        "##环",
        "##境"
      ],
      [
        "##仰",
        "##卧"
      ],
      [
        "##卧",
        "##位"
      ],
      [
        "##卧",
        "##减轻"
      ],
      [
        "##替",
        "##烧烤"
      ],
      [
        "##起",
        "##身活动"
      ],
      [
        "##冷",
        "##风头痛"
      ],
      [
        "##冷",
        "##水洗碗"
      ],
      [
        "##毛",
        "##囊建议每"
      ],
      [
        "##5",
        "##克"
      ],
      [
        "##5",
        "##每天做"
      ],
      [
        "##人",
        "##朋"
      ],
      [
        "##人",
        "##工"
      ],
      [
        "##友",
        "##交流"
      ],
      [
        "##流",
        "##通减少"
      ],
      [
        "##参",
        "##加1次"
      ],
      [
        "##散",
        "##步"
      ],
      [
        "##聊",
        "##天疏"
      ],
      [
        "##上",
        "##火"
      ],
      [
        "##上",
        "##避免"
      ],
      [
        "##阳",
        "##气建议"
      ],
      [
        "##阳",
        "##气不足建议每天"
      ],
      [
        "##炸",
        "##鸡"
      ],
      [
        "##晒",
        "##背"
      ],
      [
        "##脚",
        "##10分钟促进"
      ],
      [
        "##冰",
        "##凉"
      ],
      [
        "##冰",
        "##饮"
      ],
      [
        "##将",
        "##水果"
      ],
      [
        "##温",
        "##一"
      ],
      [
        "##温",
        "##水洗碗"
      ],
      [
        "##温",
        "##水白"
      ],
      [
        "##温",
        "##性食物"
      ],
      [
        "##一",
        "##次性"
      ],
      [
        "##如",
        "##蒸苹果"
      ],
      [
        "##如",
        "##鱼肉"
      ],
      [
        "##光",
        "##每天吃1"
      ],
      [
        "##设",
        "##备"
      ],
      [
        "##舒",
        "##缓轻"
      ],
      [
        "##轻",
        "##拭"
      ],
      [
        "##涌",
        "##泉"
      ],
      [
        "##宵",
        "##每周吃1次"
      ],
      [
        "##酯",
        "##升高"
      ],
      [
        "##掉",
        "##夜"
      ],
      [
        "##夜",
        "##宵烧烤"
      ],
      [
        "##清",
        "##洁"
      ],
      [
        "##清",
        "##汤"
      ],
      [
        "##清",
        "##理外"
      ],
      [
        "##化",
        "##痰"
      ],
      [
        "##祛",
        "##湿"
      ],
      [
        "##湿",
        "##建议少吃薯片"
      ],
      [
        "##赶",
        "##工"
      ],
      [
        "##工",
        "##作"
      ],
      [
        "##记",
        "##忆"
      ],
      [
        "##细",
        "##菌"
      ],
      [
        "##菌",
        "##滋"
      ],
      [
        "##菌",
        "##群"
      ],
      [
        "##洗",
        "##完"
      ],
      [
        "##洗",
        "##空调"
      ],
      [
        "##洗",
        "##餐具"
      ],
      [
        "##选",
        "##择"
      ],
      [
        "##正",
        "##规"
      ],
      [
        "##商",
        "##家减少"
      ],
      [
        "##声",
        "##每天喝"
      ],
      [
        "##损",
        "##失"
      ],
      [
        "##损",
        "##毛囊建议每"
      ],
      [
        "##明",
        "##目"
      ],
      [
        "##便",
        "##秘"
      ],
      [
        "##干",
        "##痛"
      ],
      [
        "##干",
        "##枯"
      ],
      [
        "##干",
        "##眼症"
      ],
      [
        "##度",
        "##不超"
      ],
      [
        "##肺",
        "##功"
      ],
      [
        "##阴",
        "##润"
      ],
      [
        "##阴",
        "##建议多"
      ],
      [
        "##多",
        "##次小"
      ],
      [
        "##喉",
        "##咙"
      ],
      [
        "##喉",
        "##经常"
      ],
      [
        "##2",
        "##颗"
      ],
      [
        "##2",
        "##5克"
      ],
      [
        "##颗",
        "##核桃"
      ],
      [
        "##梨",
        "##滋"
      ],
      [
        "##酸",
        "##痛"
      ],
      [
        "##酸",
        "##分泌"
      ],
      [
        "##酸",
        "##伤血管"
      ],
      [
        "##酸",
        "##盐超标"
      ],
      [
        "##等",
        "##粗"
      ],
      [
        "##等",
        "##温性食物"
      ],
      [
        "##粗",
        "##糙"
      ],
      [
        "##维",
        "##片"
      ],
      [
        "##节",
        "##食减肥"
      ],
      [
        "##菜",
        "##补充"
      ],
      [
        "##菜",
        "##时加盖"
      ],
      [
        "##护",
        "##理"
      ],
      [
        "##护",
        "##胃"
      ],
      [
        "##护",
        "##住"
      ],
      [
        "##护",
        "##眼模式"
      ],
      [
        "##护",
        "##手霜"
      ],
      [
        "##闭",
        "##致异味"
      ],
      [
        "##间",
        "##易反酸"
      ],
      [
        "##病",
        "##菌滋"
      ],
      [
        "##神",
        "##经受"
      ],
      [
        "##臀",
        "##部易"
      ],
      [
        "##臀",
        "##部血液循环"
      ],
      [
        "##桥",
        "##运动"
      ],
      [
        "##进",
        "##减重"
      ],
      [
        "##味",
        "##坚"
      ],
      [
        "##味",
        "##零食"
      ],
      [
        "##灼",
        "##痛"
      ],
      [
        "##克",
        "##左"
      ],
      [
        "##右",
        "##避免空腹"
      ],
      [
        "##泡",
        "##脚10分钟促进"
      ],
      [
        "##膜",
        "##修"
      ],
      [
        "##仅",
        "##清理外"
      ],
      [
        "##口",
        "##腔"
      ],
      [
        "##口",
        "##早"
      ],
      [
        "##口",
        "##饮用"
      ],
      [
        "##口",
        "##直吹面部"
      ],
      [
        "##口",
        "##可用棉"
      ],
      [
        "##口",
        "##味零食"
      ],
      [
        "##签",
        "##轻拭"
      ],
      [
        "##嚼",
        "##慢"
      ],
      [
        "##颌",
        "##关节"
      ],
      [
        "##双",
        "##肩包"
      ],
      [
        "##双",
        "##侧交替"
      ],
      [
        "##咽",
        "##减轻"
      ],
      [
        "##咽",
        "##喉经常"
      ],
      [
        "##露",
        "##脐装"
      ],
      [
        "##脐",
        "##缓解"
      ],
      [
        "##毯",
        "##护住"
      ],
      [
        "##锅",
        "##底"
      ],
      [
        "##白",
        "##萝卜"
      ],
      [
        "##白",
        "##如鱼肉"
      ],
      [
        "##痒",
        "##发"
      ],
      [
        "##发",
        "##麻"
      ],
      [
        "##发",
        "##闷"
      ],
      [
        "##发",
        "##声每天喝"
      ],
      [
        "##重",
        "##量不超"
      ],
      [
        "##重",
        "##5每天做"
      ],
      [
        "##重",
        "##口味零食"
      ],
      [
        "##蛀",
        "##牙"
      ],
      [
        "##牙",
        "##膏"
      ],
      [
        "##亮",
        "##度不超"
      ],
      [
        "##走",
        "##或慢"
      ],
      [
        "##素",
        "##沉"
      ],
      [
        "##3",
        "##小时"
      ],
      [
        "##3",
        "##次快"
      ],
      [
        "##点",
        "##小憩"
      ],
      [
        "##点",
        "##晒背"
      ],
      [
        "##片",
        "##维片"
      ],
      [
        "##若",
        "##饥"
      ],
      [
        "##饿",
        "##可吃少量"
      ],
      [
        "##方",
        "##向"
      ],
      [
        "##方",
        "##便食品"
      ],
      [
        "##平",
        "##视"
      ],
      [
        "##平",
        "##时用淘"
      ],
      [
        "##衡",
        "##失调建议"
      ],
      [
        "##恢",
        "##复"
      ],
      [
        "##复",
        "##皮肤"
      ],
      [
        "##波",
        "##炉"
      ],
      [
        "##波",
        "##动建议少吃薯片"
      ],
      [
        "##吸",
        "##附"
      ],
      [
        "##训",
        "##练"
      ],
      [
        "##跑",
        "##增强"
      ],
      [
        "##个",
        "##蛋"
      ],
      [
        "##肚",
        "##脐缓解"
      ],
      [
        "##9",
        "##10"
      ],
      [
        "##背",
        "##运动"
      ],
      [
        "##背",
        "##肌肉"
      ],
      [
        "##背",
        "##单肩包"
      ],
      [
        "##桂",
        "##圆"
      ],
      [
        "##瘫",
        "##风险"
      ],
      [
        "##挡",
        "##风板"
      ],
      [
        "##酒",
        "##23点前入睡每天吃1"
      ],
      [
        "##喊",
        "##叫"
      ],
      [
        "##番",
        "##茄"
      ],
      [
        "##抗",
        "##氧化"
      ],
      [
        "##摇",
        "##头模式"
      ],
      [
        "##距",
        "##离"
      ],
      [
        "##颈",
        "##易劳"
      ],
      [
        "##龋",
        "##齿"
      ],
      [
        "##且",
        "##伤脾胃建议每天"
      ],
      [
        "##且",
        "##致癌"
      ],
      [
        "##且",
        "##重量不超"
      ],
      [
        "##漱",
        "##口早"
      ],
      [
        "##晚",
        "##用含"
      ],
      [
        "##氟",
        "##牙膏"
      ],
      [
        "##腐",
        "##剂"
      ],
      [
        "##症",
        "##状"
      ],
      [
        "##滴",
        "##无"
      ],
      [
        "##防",
        "##腐剂"
      ],
      [
        "##剂",
        "##伤肝"
      ],
      [
        "##泪",
        "##液"
      ],
      [
        "##瓜",
        "##粥"
      ],
      [
        "##条",
        "##每天"
      ],
      [
        "##监",
        "##测"
      ],
      [
        "##测",
        "##试"
      ],
      [
        "##南",
        "##瓜粥"
      ],
      [
        "##密",
        "##闭致异味"
      ],
      [
        "##定",
        "##期清"
      ],
      [
        "##滤",
        "##网"
      ],
      [
        "##网",
        "##膜建议"
      ],
      [
        "##菠",
        "##菜补充"
      ],
      [
        "##叶",
        "##黄"
      ],
      [
        "##黄",
        "##瓜"
      ],
      [
        "##渐",
        "##进减重"
      ],
      [
        "##优",
        "##质蛋"
      ],
      [
        "##憋",
        "##尿偶"
      ],
      [
        "##尔",
        "##尿频尿"
      ],
      [
        "##肩",
        "##背肌肉"
      ],
      [
        "##肩",
        "##颈易劳"
      ],
      [
        "##收",
        "##缩"
      ],
      [
        "##根",
        "##黄瓜"
      ],
      [
        "##蒲",
        "##公"
      ],
      [
        "##英",
        "##茶养"
      ],
      [
        "##亚",
        "##硝"
      ],
      [
        "##换",
        "##双肩包"
      ],
      [
        "##体",
        "##重5每天做"
      ],
      [
        "##靠",
        "##墙"
      ],
      [
        "##夹",
        "##背运动"
      ],
      [
        "##摄",
        "##入多吃"
      ],
      [
        "##各",
        "##20"
      ],
      [
        "##抬",
        "##高双"
      ],
      [
        "##新",
        "##鲜"
      ],
      [
        "##蔬",
        "##菜"
      ],
      [
        "##7",
        "##8小时"
      ],
      [
        "##午",
        "##睡心脏"
      ],
      [
        "##精",
        "##力"
      ],
      [
        "##芹",
        "##菜"
      ],
      [
        "##息",
        "##致心"
      ],
      [
        "##率",
        "##加快"
      ],
      [
        "##采",
        "##用半"
      ],
      [
        "##涂",
        "##抹"
      ],
      [
        "##磨",
        "##砂"
      ],
      [
        "##年",
        "##染发"
      ],
      [
        "##差",
        "##建议每天做"
      ],
      [
        "##踮",
        "##脚"
      ],
      [
        "##斑",
        "##暗"
      ],
      [
        "##操",
        "##睡前"
      ],
      [
        "##原",
        "##味坚"
      ],
      [
        "##陈",
        "##皮"
      ],
      [
        "##微",
        "##波炉"
      ],
      [
        "##髓",
        "##建议"
      ],
      [
        "##划",
        "##工作"
      ],
      [
        "##津",
        "##液不足建议每天"
      ],
      [
        "##搓",
        "##揉手脚"
      ],
      [
        "##饪",
        "##食物"
      ],
      [
        "##剩",
        "##菜时加盖"
      ],
      [
        "##留",
        "##气孔"
      ],
      [
        "##容",
        "##易乏"
      ],
      [
        "##建议",
        "##搭配"
      ],
      [
        "##建议",
        "##看手机"
      ],
      [
        "##建议",
        "##减少"
      ],
      [
        "##建议",
        "##自制"
      ],
      [
        "##建议",
        "##中午"
      ],
      [
        "##建议",
        "##自备"
      ],
      [
        "##建议",
        "##调整"
      ],
      [
        "##建议",
        "##盖薄"
      ],
      [
        "##建议",
        "##拉上"
      ],
      [
        "##建议",
        "##吃火锅"
      ],
      [
        "##建议",
        "##穿宽"
      ],
      [
        "##建议",
        "##循序"
      ],
      [
        "##建议",
        "##仰卧"
      ],
      [
        "##建议",
        "##双侧交替"
      ],
      [
        "##建议",
        "##换双肩包"
      ],
      [
        "##每天",
        "##保证"
      ],
      [
        "##每天",
        "##用热毛巾敷"
      ],
      [
        "长期",
        "##看手机"
      ],
      [
        "长期",
        "##吹风"
      ],
      [
        "长期",
        "##戴耳机"
      ],
      [
        "长期",
        "##久坐"
      ],
      [
        "长期",
        "##穿高跟鞋"
      ],
      [
        "长期",
        "##看电子"
      ],
      [
        "长期",
        "##睡在"
      ],
      [
        "长期",
        "##低头"
      ],
      [
        "长期",
        "##背单肩包"
      ],
      [
        "长期",
        "##憋尿偶"
      ],
      [
        "频繁",
        "##染发"
      ],
      [
        "频繁",
        "##喝奶茶"
      ],
      [
        "##建议每天",
        "##戴耳机"
      ],
      [
        "##建议每天",
        "##开窗通风"
      ],
      [
        "##建议每天",
        "##保证"
      ],
      [
        "##建议每天",
        "##穿高跟鞋"
      ],
      [
        "##建议每天",
        "##和家"
      ],
      [
        "##避免",
        "##头部"
      ],
      [
        "##避免",
        "##油腻"
      ],
      [
        "##避免",
        "##用挖"
      ],
      [
        "##避免",
        "##心慌"
      ],
      [
        "##避免",
        "##一次性"
      ],
      [
        "经常",
        "##大声说话"
      ],
      [
        "经常",
        "##喝功"
      ],
      [
        "经常",
        "##用空调"
      ],
      [
        "经常",
        "##吹空调"
      ],
      [
        "##睡前",
        "##易反酸"
      ],
      [
        "##睡前",
        "##拉伸"
      ],
      [
        "##睡前",
        "##泡脚10分钟促进"
      ],
      [
        "##食物",
        "##每天喝"
      ],
      [
        "##食物",
        "##肠胃易"
      ],
      [
        "##食物",
        "##营养"
      ],
      [
        "##食物",
        "##脸部不对"
      ],
      [
        "##不超",
        "##1次"
      ],
      [
        "##不超",
        "##4小时"
      ],
      [
        "##不超",
        "##2次"
      ],
      [
        "##不超",
        "##过1小时"
      ],
      [
        "缺乏",
        "##开窗通风"
      ],
      [
        "缺乏",
        "##喝水"
      ],
      [
        "缺乏",
        "##社交"
      ],
      [
        "缺乏",
        "##晒太阳"
      ],
      [
        "缺乏",
        "##午睡心脏"
      ],
      [
        "##1次",
        "##仅清理外"
      ],
      [
        "##1次",
        "##定期清"
      ],
      [
        "##每周",
        "##做1次"
      ],
      [
        "##每周",
        "##参加1次"
      ],
      [
        "##每周",
        "##清洁"
      ],
      [
        "##每周",
        "##3次快"
      ],
      [
        "##运动",
        "##各20"
      ],
      [
        "##运动",
        "##睡前泡脚10分钟促进"
      ],
      [
        "##肠胃",
        "##负担"
      ],
      [
        "##肠胃",
        "##建议吃火锅"
      ],
      [
        "##促进",
        "##胆囊"
      ],
      [
        "##促进",
        "##臀部血液循环"
      ],
      [
        "##促进",
        "##恢复"
      ],
      [
        "##每天吃",
        "##23"
      ],
      [
        "##每天吃",
        "##200"
      ],
      [
        "##10分钟",
        "##每天喝"
      ],
      [
        "##10分钟",
        "##每周3次快"
      ],
      [
        "##直吹",
        "##头顶"
      ],
      [
        "##直吹",
        "##冷风头痛"
      ],
      [
        "##手机",
        "##入睡"
      ],
      [
        "频繁吃",
        "##甜食"
      ],
      [
        "频繁吃",
        "##辛辣"
      ],
      [
        "频繁吃",
        "##高油"
      ],
      [
        "频繁吃",
        "##生冷"
      ],
      [
        "频繁吃",
        "##外卖"
      ],
      [
        "频繁吃",
        "##夜宵烧烤"
      ],
      [
        "##不足",
        "##伤气血"
      ],
      [
        "##不足",
        "##6小时"
      ],
      [
        "##搭配",
        "##红枣"
      ],
      [
        "##搭配",
        "##新鲜"
      ],
      [
        "##看手机",
        "##颈椎"
      ],
      [
        "##看手机",
        "##致平"
      ],
      [
        "##减少",
        "##营养"
      ],
      [
        "##15",
        "##00"
      ],
      [
        "##15",
        "##米以"
      ],
      [
        "##00",
        "##温水白"
      ],
      [
        "##食品",
        "##含反"
      ],
      [
        "##经常",
        "##手脚"
      ],
      [
        "##经常",
        "##喝碳"
      ],
      [
        "##经常",
        "##发闷"
      ],
      [
        "##零食",
        "##胆囊"
      ],
      [
        "##零食",
        "##致胆囊"
      ],
      [
        "##零食",
        "##生痰"
      ],
      [
        "##零食",
        "##喉咙"
      ],
      [
        "##热敷",
        "##腹部"
      ],
      [
        "##热敷",
        "##肚脐缓解"
      ],
      [
        "##缓解",
        "##浮肿"
      ],
      [
        "##缓解",
        "##腰肌"
      ],
      [
        "##循环",
        "##差建议每天做"
      ],
      [
        "##多吃",
        "##白萝卜"
      ],
      [
        "##多吃",
        "##桂圆"
      ],
      [
        "##多吃",
        "##原味坚"
      ],
      [
        "##多吃",
        "##陈皮"
      ],
      [
        "##甜食",
        "##及时"
      ],
      [
        "##甜食",
        "##反酸"
      ],
      [
        "##甜食",
        "##睡前易反酸"
      ],
      [
        "长期用",
        "##空调"
      ],
      [
        "长期用",
        "##嗓过度"
      ],
      [
        "长期用",
        "##电脑"
      ],
      [
        "长期用",
        "##冷水洗碗"
      ],
      [
        "长期用",
        "##微波炉"
      ],
      [
        "##每天吃1",
        "##2颗"
      ],
      [
        "##每天吃1",
        "##根黄瓜"
      ],
      [
        "##耳道",
        "##黏膜建议"
      ],
      [
        "##耳道",
        "##易瘙"
      ],
      [
        "##耳道",
        "##口可用棉"
      ],
      [
        "##伤肝",
        "##建议戒"
      ],
      [
        "##伤肝",
        "##致色"
      ],
      [
        "##伤肝",
        "##血建议睡前"
      ],
      [
        "##时间",
        "##23点前入睡"
      ],
      [
        "##时间",
        "##不足6小时"
      ],
      [
        "##餐具",
        "##易有"
      ],
      [
        "##餐具",
        "##不卫"
      ],
      [
        "##餐具",
        "##吃外卖"
      ],
      [
        "##20分钟",
        "##补充"
      ],
      [
        "##20分钟",
        "##眨眼"
      ],
      [
        "##20分钟",
        "##保持"
      ],
      [
        "##20分钟",
        "##多吃桂圆"
      ],
      [
        "##皮肤",
        "##建议用"
      ],
      [
        "##皮肤",
        "##易长"
      ],
      [
        "##皮肤",
        "##测试"
      ],
      [
        "##颈椎",
        "##10分钟"
      ],
      [
        "##颈椎",
        "##米字"
      ],
      [
        "##建议睡前",
        "##4小时"
      ],
      [
        "##建议睡前",
        "##3小时"
      ],
      [
        "##每天喝",
        "##玉米须"
      ],
      [
        "长期吃",
        "##辛辣"
      ],
      [
        "长期吃",
        "##腌制"
      ],
      [
        "长期吃",
        "##油炸食品"
      ],
      [
        "长期吃",
        "##方便食品"
      ],
      [
        "经常吃",
        "##油炸"
      ],
      [
        "经常吃",
        "##生冷"
      ],
      [
        "经常吃",
        "##重口味零食"
      ],
      [
        "经常吃",
        "##甜食睡前易反酸"
      ],
      [
        "##肠胃易",
        "##不适"
      ],
      [
        "##肠胃易",
        "##上火"
      ],
      [
        "久坐",
        "##不动"
      ],
      [
        "熬夜",
        "##加喝酒"
      ],
      [
        "熬夜",
        "##伤脑"
      ],
      [
        "熬夜",
        "##伤肝致色"
      ],
      [
        "睡前",
        "##进食"
      ],
      [
        "睡前",
        "##吃太"
      ],
      [
        "睡前",
        "##频繁刷"
      ],
      [
        "空调",
        "##直吹面部"
      ],
      [
        "##加热",
        "##致维"
      ],
      [
        "##加热",
        "##剩菜时加盖"
      ],
      [
        "##加热",
        "##食物营养"
      ],
      [
        "##加重",
        "##肠胃负担"
      ],
      [
        "##配合",
        "##按揉"
      ],
      [
        "##配合",
        "##搓揉手脚"
      ],
      [
        "##腹部",
        "##腹痛"
      ],
      [
        "##吹风",
        "##致头部"
      ],
      [
        "##吹风",
        "##口直吹面部"
      ],
      [
        "##空腹",
        "##喝3"
      ],
      [
        "##易致",
        "##腰椎"
      ],
      [
        "##易致",
        "##阳气不足建议每天"
      ],
      [
        "##易致",
        "##龋齿"
      ],
      [
        "##易受",
        "##风头痛"
      ],
      [
        "##减轻",
        "##心脏"
      ],
      [
        "##睡觉",
        "##致血液循环"
      ],
      [
        "##睡觉",
        "##脸部易"
      ],
      [
        "##睡觉",
        "##避免头部"
      ],
      [
        "##心脏",
        "##易不适"
      ],
      [
        "##水果",
        "##伤脾阳建议"
      ],
      [
        "##水果",
        "##肠胃易不适"
      ],
      [
        "##血压",
        "##易升高"
      ],
      [
        "##血液",
        "##回流"
      ],
      [
        "##交替",
        "##敷脸"
      ],
      [
        "##补充",
        "##电解质"
      ],
      [
        "##穿高",
        "##腰衣"
      ],
      [
        "##静脉",
        "##回流"
      ],
      [
        "##静脉",
        "##曲张"
      ],
      [
        "##静脉",
        "##建议穿宽"
      ],
      [
        "##室内",
        "##易有"
      ],
      [
        "##室内",
        "##空气"
      ],
      [
        "##室内",
        "##易缺"
      ],
      [
        "##及时",
        "##排出"
      ],
      [
        "##活动",
        "##散步"
      ],
      [
        "##太阳",
        "##穴缓解"
      ],
      [
        "##苹果",
        "##促进胆囊"
      ],
      [
        "##染发",
        "##前做"
      ],
      [
        "##辛辣",
        "##刺激"
      ],
      [
        "##咀嚼",
        "##每天按摩"
      ],
      [
        "##咀嚼",
        "##伤咬肌"
      ],
      [
        "##咀嚼",
        "##食物脸部不对"
      ],
      [
        "##负担",
        "##加重"
      ],
      [
        "##面部",
        "##穴位"
      ],
      [
        "##咸菜",
        "##腌制"
      ],
      [
        "##咸菜",
        "##亚硝"
      ],
      [
        "##咸菜",
        "##不超1次"
      ],
      [
        "##建议每",
        "##20分钟眨眼"
      ],
      [
        "##每天做",
        "##颈椎米字"
      ],
      [
        "频繁熬夜",
        "##喝酒"
      ],
      [
        "频繁熬夜",
        "##赶工"
      ],
      [
        "频繁熬夜",
        "##皮肤易长"
      ],
      [
        "##每周吃",
        "##咸菜不超1次"
      ],
      [
        "##建议少吃",
        "##油炸食品"
      ],
      [
        "##10次",
        "##饮水"
      ],
      [
        "##10次",
        "##每天用热毛巾敷"
      ],
      [
        "##10次",
        "##促进臀部血液循环"
      ],
      [
        "##开窗通风",
        "##2次"
      ],
      [
        "##热毛巾",
        "##交替敷脸"
      ],
      [
        "1把",
        "##蓝莓"
      ],
      [
        "1把",
        "##菠菜补充"
      ],
      [
        "单侧",
        "##睡觉致血液循环"
      ],
      [
        "单侧",
        "##咀嚼伤咬肌"
      ],
      [
        "每天",
        "##睡眠"
      ],
      [
        "每天",
        "##喝很"
      ],
      [
        "油炸",
        "##食品含反"
      ],
      [
        "油炸",
        "##零食生痰"
      ],
      [
        "甜食",
        "##致胃"
      ],
      [
        "甜食",
        "##易致龋齿"
      ],
      [
        "生冷",
        "##伤脾阳"
      ],
      [
        "生冷",
        "##水果伤脾阳建议"
      ],
      [
        "##高油",
        "##建议少喝"
      ],
      [
        "##少量",
        "##红茶不"
      ],
      [
        "##自制",
        "##奶茶"
      ],
      [
        "##麦冬",
        "##茶润喉避免"
      ],
      [
        "##增加",
        "##饱腹"
      ],
      [
        "##增加",
        "##建议调整"
      ],
      [
        "##腹部易",
        "##受凉"
      ],
      [
        "##调至",
        "##护眼模式"
      ],
      [
        "##调至",
        "##摇头模式"
      ],
      [
        "##易生",
        "##痰"
      ],
      [
        "##易生",
        "##蛀牙"
      ],
      [
        "##电子",
        "##设备"
      ],
      [
        "##屏幕",
        "##眨眼"
      ],
      [
        "##屏幕",
        "##过亮"
      ],
      [
        "##致肝",
        "##郁建议睡前"
      ],
      [
        "##致肝",
        "##气郁结"
      ],
      [
        "##睡眠",
        "##中午"
      ],
      [
        "##11",
        "##13"
      ],
      [
        "##1小时",
        "##放下"
      ],
      [
        "##气建议",
        "##有尿意"
      ],
      [
        "##气不足建议每天",
        "##开窗通风2次"
      ],
      [
        "##放松",
        "##身心"
      ],
      [
        "##放松",
        "##肩背肌肉"
      ],
      [
        "##下肢",
        "##易水"
      ],
      [
        "##的食物",
        "##饭后喝"
      ],
      [
        "##社交",
        "##活动散步"
      ],
      [
        "##情绪",
        "##易低"
      ],
      [
        "##后热敷",
        "##腰部做"
      ],
      [
        "##后热敷",
        "##促进恢复"
      ],
      [
        "##小憩",
        "##15分钟"
      ],
      [
        "##耳朵",
        "##经常发闷"
      ],
      [
        "##耳朵",
        "##耳道易瘙"
      ],
      [
        "##伤气血",
        "##建议循序"
      ],
      [
        "##过亮",
        "##伤视"
      ],
      [
        "##按揉",
        "##听宫"
      ],
      [
        "##扇直吹",
        "##头部易"
      ],
      [
        "##紧张",
        "##建议换双肩包"
      ],
      [
        "##大声说话",
        "##每天吃12颗"
      ],
      [
        "##饮水",
        "##1500"
      ],
      [
        "##受凉",
        "##后煮生姜"
      ],
      [
        "##肌肉",
        "##紧张建议换双肩包"
      ],
      [
        "##侧交替",
        "##睡晨起"
      ],
      [
        "##手部",
        "##磨砂"
      ],
      [
        "##久坐",
        "##压迫"
      ],
      [
        "##压迫",
        "##静脉建议穿宽"
      ],
      [
        "##晨起",
        "##空腹喝3"
      ],
      [
        "##5分钟",
        "##吃食物"
      ],
      [
        "##5分钟",
        "##缓解浮肿"
      ],
      [
        "##流失",
        "##建议多"
      ],
      [
        "##肠道",
        "##菌群"
      ],
      [
        "##清热",
        "##解腻"
      ],
      [
        "##清热",
        "##明目"
      ],
      [
        "##清蒸",
        "##鱼代"
      ],
      [
        "##声带",
        "##易受损"
      ],
      [
        "##肺活量",
        "##易下降"
      ],
      [
        "##胖大海",
        "##茶润喉避免"
      ],
      [
        "##胖大海",
        "##麦冬茶润喉避免"
      ],
      [
        "##200",
        "##0分"
      ],
      [
        "##酸奶",
        "##调节"
      ],
      [
        "##酸奶",
        "##护胃"
      ],
      [
        "##纤维",
        "##食物每天喝"
      ],
      [
        "##咬肌",
        "##5分钟吃食物"
      ],
      [
        "##关节",
        "##负担"
      ],
      [
        "##刺激",
        "##胃黏膜建议"
      ],
      [
        "##火锅",
        "##肠胃易上火"
      ],
      [
        "##发质",
        "##干枯"
      ],
      [
        "##走路",
        "##不看手机"
      ],
      [
        "##走路",
        "##易崴脚"
      ],
      [
        "##崴脚",
        "##后4"
      ],
      [
        "##8小时",
        "##内冷"
      ],
      [
        "##呼吸",
        "##发声每天喝"
      ],
      [
        "##长时间",
        "##直吹头顶"
      ],
      [
        "##核桃",
        "##补肝肾"
      ],
      [
        "##建议用",
        "##腹式"
      ],
      [
        "##建议戒",
        "##掉夜"
      ],
      [
        "##每天按摩",
        "##面部穴位"
      ],
      [
        "长期单侧",
        "##睡觉脸部易"
      ],
      [
        "长期单侧",
        "##咀嚼食物脸部不对"
      ],
      [
        "频繁掏",
        "##耳伤"
      ],
      [
        "频繁掏",
        "##耳朵耳道易瘙"
      ],
      [
        "##建议每天做",
        "##深呼吸"
      ],
      [
        "##避免空腹",
        "##运动"
      ],
      [
        "经常穿",
        "##紧身裤"
      ],
      [
        "经常穿",
        "##露脐装"
      ],
      [
        "缺乏运动",
        "##下肢易水"
      ],
      [
        "缺乏运动",
        "##肺活量易下降"
      ],
      [
        "##15分钟",
        "##每周参加1次"
      ],
      [
        "##伤脾胃建议每天",
        "##饮水1500"
      ],
      [
        "##建议少喝",
        "##改喝淡"
      ],
      [
        "久坐致",
        "##坐骨"
      ],
      [
        "久坐致",
        "##肺功"
      ],
      [
        "空调房",
        "##不盖被"
      ],
      [
        "空调房",
        "##密闭致异味"
      ],
      [
        "##红枣水",
        "##饮用"
      ],
      [
        "##红枣水",
        "##热敷腹部"
      ],
      [
        "##每周吃1次",
        "##深海"
      ],
      [
        "##伤脾阳建议",
        "##穿高腰衣"
      ],
      [
        "##23点前入睡每天吃1",
        "##片维片"
      ],
      [
        "##用热毛巾敷",
        "##颈椎10分钟"
      ],
      [
        "##不盖被",
        "##子腹部易"
      ],
      [
        "##调味品",
        "##胃部易"
      ],
      [
        "##调味品",
        "##改吃清蒸"
      ],
      [
        "##饭后喝",
        "##酸奶护胃"
      ],
      [
        "##小米粥",
        "##养胃"
      ],
      [
        "##小米粥",
        "##或蒸苹果"
      ],
      [
        "##能性饮料",
        "##心脏易不适"
      ],
      [
        "1颗",
        "##番茄"
      ],
      [
        "1杯",
        "##蒲公"
      ],
      [
        "1个",
        "##苹果促进胆囊"
      ],
      [
        "久戴耳机",
        "##伤耳窍"
      ],
      [
        "低头",
        "##伤颈椎"
      ],
      [
        "冷水",
        "##伤手部"
      ],
      [
        "功能性饮料",
        "##含咖"
      ],
      [
        "勾脚",
        "##运动各20"
      ],
      [
        "午时",
        "##不休"
      ],
      [
        "单肩包",
        "##致单侧"
      ],
      [
        "压力",
        "##大经常"
      ],
      [
        "可煮生姜",
        "##红枣水饮用"
      ],
      [
        "咸菜",
        "##伤肠胃"
      ],
      [
        "外卖",
        "##餐具易有"
      ],
      [
        "多吃",
        "##核桃补肝肾"
      ],
      [
        "夜宵烧烤",
        "##致甘"
      ],
      [
        "大声说话",
        "##伤声带"
      ],
      [
        "奶茶",
        "##高糖"
      ],
      [
        "密闭",
        "##空间"
      ],
      [
        "少晒太阳",
        "##易致阳气不足建议每天"
      ],
      [
        "屏幕",
        "##过亮伤视"
      ],
      [
        "山药",
        "##粥"
      ],
      [
        "建议",
        "##少吃"
      ],
      [
        "微波",
        "##加热致维"
      ],
      [
        "憋尿",
        "##伤肾"
      ],
      [
        "方便食品",
        "##缺乏膳"
      ],
      [
        "染发",
        "##剂伤肝"
      ],
      [
        "每餐",
        "##吃温"
      ],
      [
        "油条",
        "##摄入多吃"
      ],
      [
        "火锅",
        "##辛辣刺激"
      ],
      [
        "炖的食物",
        "##每周吃1次深海"
      ],
      [
        "炸鸡",
        "##多吃陈皮"
      ],
      [
        "焦虑",
        "##易导"
      ],
      [
        "煮梨",
        "##每天吃200"
      ],
      [
        "煮方",
        "##式烹"
      ],
      [
        "独处",
        "##过久"
      ],
      [
        "生菜",
        "##清热解腻"
      ],
      [
        "用嗓过度",
        "##伤肺"
      ],
      [
        "白煮",
        "##的食物饭后喝"
      ],
      [
        "白萝卜",
        "##煮水喝"
      ],
      [
        "眨眼",
        "##少致"
      ],
      [
        "睡眠",
        "##不足伤气血"
      ],
      [
        "碳酸饮料",
        "##伤脾胃建议每天饮水1500"
      ],
      [
        "窗边",
        "##吹风致头部"
      ],
      [
        "紧身裤",
        "##压迫静脉建议穿宽"
      ],
      [
        "红薯",
        "##等粗"
      ],
      [
        "红豆",
        "##补气血"
      ],
      [
        "缺水",
        "##致肠道"
      ],
      [
        "羊肉",
        "##等温性食物"
      ],
      [
        "节食",
        "##伤气血建议循序"
      ],
      [
        "花椒",
        "##刺激胃黏膜建议"
      ],
      [
        "菊花",
        "##清热明目"
      ],
      [
        "蓝光",
        "##伤肝血建议睡前"
      ],
      [
        "豆腐",
        "##搭配红枣"
      ],
      [
        "走路",
        "##看手机致平"
      ],
      [
        "辣条",
        "##多吃原味坚"
      ],
      [
        "过度",
        "##节食减肥"
      ],
      [
        "零食",
        "##高盐"
      ],
      [
        "露脐装",
        "##伤脾阳建议穿高腰衣"
      ],
      [
        "风扇直吹",
        "##伤头部"
      ],
      [
        "高油",
        "##零食致胆囊"
      ],
      [
        "高跟鞋",
        "##易致腰椎"
      ],
      [
        "黄瓜",
        "##条每天"
      ],
      [
        "##高枕",
        "##头侧"
      ],
      [
        "##油三",
        "##酯升高"
      ],
      [
        "##少放",
        "##调味品改吃清蒸"
      ],
      [
        "##少水",
        "##经常喝碳"
      ],
      [
        "##喝麦冬",
        "##胖大海茶润喉避免"
      ],
      [
        "##用纯",
        "##牛奶和"
      ],
      [
        "##用冷",
        "##热毛巾交替敷脸"
      ],
      [
        "##用活",
        "##性炭"
      ],
      [
        "##和后",
        "##颈"
      ],
      [
        "##和颞",
        "##颌关节"
      ],
      [
        "##和长时间",
        "##说话"
      ],
      [
        "##和电解质",
        "##建议少喝改喝淡"
      ],
      [
        "##红糖水喝",
        "##热敷肚脐缓解"
      ],
      [
        "##不吃",
        "##甜食反酸"
      ],
      [
        "##不通",
        "##建议拉上"
      ],
      [
        "##不畅",
        "##建议仰卧"
      ],
      [
        "##不通风",
        "##室内易有"
      ],
      [
        "##不活动",
        "##臀部易"
      ],
      [
        "##不进食",
        "##若饥"
      ],
      [
        "##加糖搭配",
        "##燕麦"
      ],
      [
        "##饱夜",
        "##间易反酸"
      ],
      [
        "##易干",
        "##结"
      ],
      [
        "##易疲",
        "##劳"
      ],
      [
        "##着建议",
        "##23点前入睡每天吃1片维片"
      ],
      [
        "##眼睛",
        "##易疲劳"
      ],
      [
        "##眼10分钟",
        "##滴无"
      ],
      [
        "##次数",
        "##减少"
      ],
      [
        "##次睡前",
        "##抬高双"
      ],
      [
        "##致氧",
        "##气不足建议每天开窗通风2次"
      ],
      [
        "##致面",
        "##瘫风险"
      ],
      [
        "##致血压",
        "##波动建议少吃薯片"
      ],
      [
        "##致腹痛",
        "##建议盖薄"
      ],
      [
        "##致下肢",
        "##循环差建议每天做"
      ],
      [
        "##肝理",
        "##气配合"
      ],
      [
        "##肝护",
        "##肝"
      ],
      [
        "##肝脏",
        "##易受损"
      ],
      [
        "##睡姿",
        "##减轻心脏"
      ],
      [
        "##前用开",
        "##水烫"
      ],
      [
        "##冥想",
        "##10分钟每天喝"
      ],
      [
        "##1杯",
        "##酸奶调节"
      ],
      [
        "##每次15",
        "##20分钟保持"
      ],
      [
        "##天再吃",
        "##每周吃咸菜不超1次"
      ],
      [
        "##天分8",
        "##10次饮水"
      ],
      [
        "##玫瑰",
        "##花茶疏"
      ],
      [
        "##合理规",
        "##划工作"
      ],
      [
        "##伸展",
        "##缓解腰肌"
      ],
      [
        "##松棉",
        "##质裤子每天做"
      ],
      [
        "##下再吃",
        "##如蒸苹果"
      ],
      [
        "##水通",
        "##淋避免"
      ],
      [
        "##水利",
        "##水通淋避免"
      ],
      [
        "##食如",
        "##南瓜粥"
      ],
      [
        "##食纤维",
        "##建议搭配"
      ],
      [
        "##物腹部",
        "##受凉后煮生姜"
      ],
      [
        "##吃完",
        "##甜食及时"
      ],
      [
        "##吃糖不超",
        "##25克"
      ],
      [
        "##深入",
        "##耳道"
      ],
      [
        "##鱼降",
        "##血脂"
      ],
      [
        "##降低",
        "##血脂"
      ],
      [
        "##米水洗",
        "##头滋"
      ],
      [
        "##耳勺",
        "##深入耳道"
      ],
      [
        "##超20",
        "##天再吃每周吃咸菜不超1次"
      ],
      [
        "##过多",
        "##建议睡前4小时"
      ],
      [
        "##时细",
        "##嚼慢"
      ],
      [
        "##时垫",
        "##高枕头侧"
      ],
      [
        "##时搭配",
        "##清汤"
      ],
      [
        "##时热敷",
        "##太阳穴缓解"
      ],
      [
        "##时保持",
        "##平视"
      ],
      [
        "##时喝生姜",
        "##红枣水热敷腹部"
      ],
      [
        "##音乐",
        "##配合按揉"
      ],
      [
        "##音量不超",
        "##60可"
      ],
      [
        "##可听",
        "##舒缓轻"
      ],
      [
        "##可泡",
        "##枸杞"
      ],
      [
        "##穴助",
        "##眠"
      ],
      [
        "##补脑",
        "##益智"
      ],
      [
        "##腿部易",
        "##静脉曲张"
      ],
      [
        "##腿10分钟促进",
        "##血液回流"
      ],
      [
        "##腿部拉伸",
        "##运动睡前泡脚10分钟促进"
      ],
      [
        "##窗边",
        "##易受风头痛"
      ],
      [
        "##窗帘",
        "##睡觉避免头部"
      ],
      [
        "##大便",
        "##易干结"
      ],
      [
        "##经络",
        "##不通建议拉上"
      ],
      [
        "##焦虑失",
        "##眠"
      ],
      [
        "##生素",
        "##流失建议多"
      ],
      [
        "##生肠胃易",
        "##感染"
      ],
      [
        "##腰部易",
        "##酸痛"
      ],
      [
        "##受力不均",
        "##建议每天穿高跟鞋"
      ],
      [
        "##40分钟",
        "##起身活动"
      ],
      [
        "##回家",
        "##后热敷腰部做"
      ],
      [
        "##热主",
        "##食如南瓜粥"
      ],
      [
        "##敷之",
        "##后热敷促进恢复"
      ],
      [
        "##敷补水面",
        "##膜修"
      ],
      [
        "##做菜",
        "##少放调味品改吃清蒸"
      ],
      [
        "##做臀",
        "##桥运动"
      ],
      [
        "##猫式",
        "##伸展缓解腰肌"
      ],
      [
        "##式脂肪",
        "##酸伤血管"
      ],
      [
        "##能减弱",
        "##建议每天做深呼吸"
      ],
      [
        "##啡因",
        "##和电解质建议少喝改喝淡"
      ],
      [
        "##盐水或",
        "##椰子水"
      ],
      [
        "##或两",
        "##侧交替睡晨起"
      ],
      [
        "##或加装",
        "##挡风板"
      ],
      [
        "##手部易",
        "##粗糙"
      ],
      [
        "##手及时",
        "##涂抹"
      ],
      [
        "##肾且",
        "##损毛囊建议每"
      ],
      [
        "##出风口",
        "##方向"
      ],
      [
        "##压建议每",
        "##40分钟起身活动"
      ],
      [
        "##环境",
        "##光每天吃1"
      ],
      [
        "##卧位",
        "##睡姿减轻心脏"
      ],
      [
        "##卧减轻",
        "##症状"
      ],
      [
        "##替烧烤",
        "##降低血脂"
      ],
      [
        "##人朋",
        "##友交流"
      ],
      [
        "##人工",
        "##泪液"
      ],
      [
        "##流通减少",
        "##病菌滋"
      ],
      [
        "##聊天疏",
        "##解情绪"
      ],
      [
        "##上避免",
        "##长时间直吹头顶"
      ],
      [
        "##阳气建议",
        "##调至摇头模式"
      ],
      [
        "##将水果",
        "##温一"
      ],
      [
        "##温水洗碗",
        "##洗完"
      ],
      [
        "##涌泉",
        "##穴助眠"
      ],
      [
        "##宵每周吃1次",
        "##清蒸鱼代"
      ],
      [
        "##化痰",
        "##祛湿"
      ],
      [
        "##记忆",
        "##力下降"
      ],
      [
        "##细菌",
        "##建议自备"
      ],
      [
        "##洗空调",
        "##滤网"
      ],
      [
        "##洗餐具",
        "##选择"
      ],
      [
        "##正规",
        "##商家减少"
      ],
      [
        "##便秘",
        "##加重"
      ],
      [
        "##干眼症",
        "##建议每20分钟眨眼"
      ],
      [
        "##阴润",
        "##肺"
      ],
      [
        "##阴建议多",
        "##喝麦冬胖大海茶润喉避免"
      ],
      [
        "##多次小",
        "##口饮用"
      ],
      [
        "##梨滋",
        "##阴润肺"
      ],
      [
        "##酸分泌",
        "##过多建议睡前4小时"
      ],
      [
        "##护手霜",
        "##每周做1次"
      ],
      [
        "##神经受",
        "##压建议每40分钟起身活动"
      ],
      [
        "##克左",
        "##右避免空腹"
      ],
      [
        "##口腔",
        "##易生蛀牙"
      ],
      [
        "##签轻拭",
        "##避免用挖"
      ],
      [
        "##咽减轻",
        "##关节负担"
      ],
      [
        "##咽喉经常",
        "##干痛"
      ],
      [
        "##毯护住",
        "##腹部腹痛"
      ],
      [
        "##锅底",
        "##多吃白萝卜"
      ],
      [
        "##痒发",
        "##炎"
      ],
      [
        "##亮度不超",
        "##环境光每天吃1"
      ],
      [
        "##走或慢",
        "##跑增强"
      ],
      [
        "##素沉",
        "##着建议23点前入睡每天吃1片维片"
      ],
      [
        "##点小憩",
        "##20分钟补充"
      ],
      [
        "##点晒背",
        "##20分钟多吃桂圆"
      ],
      [
        "##饿可吃少量",
        "##小米粥或蒸苹果"
      ],
      [
        "##平时用淘",
        "##米水洗头滋"
      ],
      [
        "##衡失调建议",
        "##走路不看手机"
      ],
      [
        "##吸附",
        "##异味"
      ],
      [
        "##训练",
        "##10分钟每周3次快"
      ],
      [
        "##个蛋",
        "##黄"
      ],
      [
        "##910",
        "##点晒背20分钟多吃桂圆"
      ],
      [
        "##酒23点前入睡每天吃1",
        "##把枸杞"
      ],
      [
        "##喊叫",
        "##和长时间说话"
      ],
      [
        "##抗氧化",
        "##敷补水面膜修"
      ],
      [
        "##距离",
        "##15米以"
      ],
      [
        "##且伤脾胃建议每天",
        "##吃糖不超25克"
      ],
      [
        "##且致癌",
        "##建议自制"
      ],
      [
        "##且重量不超",
        "##体重5每天做"
      ],
      [
        "##漱口早",
        "##晚用含"
      ],
      [
        "##氟牙膏",
        "##刷牙"
      ],
      [
        "##防腐剂",
        "##人工泪液"
      ],
      [
        "##监测",
        "##血压"
      ],
      [
        "##网膜建议",
        "##调至护眼模式"
      ],
      [
        "##叶黄",
        "##素"
      ],
      [
        "##渐进减重",
        "##每天保证"
      ],
      [
        "##优质蛋",
        "##白如鱼肉"
      ],
      [
        "##尔尿频尿",
        "##急"
      ],
      [
        "##肩颈易劳",
        "##损"
      ],
      [
        "##收缩",
        "##建议少吃油炸食品"
      ],
      [
        "##英茶养",
        "##肝护肝"
      ],
      [
        "##靠墙",
        "##夹背运动"
      ],
      [
        "##78小时",
        "##睡眠中午"
      ],
      [
        "##息致心",
        "##率加快"
      ],
      [
        "##采用半",
        "##卧位睡姿减轻心脏"
      ],
      [
        "##年染发",
        "##不超2次"
      ],
      [
        "##斑暗",
        "##沉"
      ],
      [
        "##操睡前",
        "##用热毛巾敷颈椎10分钟"
      ],
      [
        "##髓建议",
        "##合理规划工作"
      ],
      [
        "##津液不足建议每天",
        "##晨起空腹喝3"
      ],
      [
        "##饪食物",
        "##加热剩菜时加盖"
      ],
      [
        "##留气孔",
        "##减少营养"
      ],
      [
        "##容易乏",
        "##力头晕"
      ],
      [
        "##建议看手机",
        "##时保持平视"
      ],
      [
        "##建议减少",
        "##炸鸡"
      ],
      [
        "##建议中午",
        "##小憩15分钟"
      ],
      [
        "##建议双侧交替",
        "##咀嚼每天按摩"
      ],
      [
        "长期看手机",
        "##走路易崴脚"
      ],
      [
        "长期吹风",
        "##扇直吹头部易"
      ],
      [
        "长期戴耳机",
        "##耳朵经常发闷"
      ],
      [
        "长期久坐",
        "##不活动臀部易"
      ],
      [
        "长期穿高跟鞋",
        "##腰部易酸痛"
      ],
      [
        "长期看电子",
        "##屏幕眨眼"
      ],
      [
        "长期睡在",
        "##窗边易受风头痛"
      ],
      [
        "长期低头",
        "##看手机颈椎"
      ],
      [
        "长期背单肩包",
        "##肩颈易劳损"
      ],
      [
        "长期憋尿偶",
        "##尔尿频尿急"
      ],
      [
        "频繁染发",
        "##发质干枯"
      ],
      [
        "频繁喝奶茶",
        "##血糖易升高"
      ],
      [
        "##建议每天戴耳机",
        "##不超过1小时"
      ],
      [
        "##建议每天开窗通风",
        "##1次定期清"
      ],
      [
        "##建议每天保证",
        "##78小时睡眠中午"
      ],
      [
        "##建议每天和家",
        "##人朋友交流"
      ],
      [
        "##避免油腻",
        "##甜食"
      ],
      [
        "##避免一次性",
        "##大量喝水"
      ],
      [
        "经常大声说话",
        "##声带易受损"
      ],
      [
        "经常喝功",
        "##能性饮料心脏易不适"
      ],
      [
        "经常用空调",
        "##不通风室内易有"
      ],
      [
        "经常吹空调",
        "##不盖被子腹部易"
      ],
      [
        "##睡前拉伸",
        "##放松身心"
      ],
      [
        "##食物肠胃易",
        "##腹泻"
      ],
      [
        "##不超4小时",
        "##回家后热敷腰部做"
      ],
      [
        "缺乏开窗通风",
        "##室内易缺"
      ],
      [
        "缺乏喝水",
        "##大便易干结"
      ],
      [
        "缺乏社交",
        "##情绪易低"
      ],
      [
        "缺乏晒太阳",
        "##经常手脚"
      ],
      [
        "缺乏午睡心脏",
        "##负担加重"
      ],
      [
        "##1次仅清理外",
        "##耳道口可用棉"
      ],
      [
        "##每周清洁",
        "##1次仅清理外耳道口可用棉"
      ],
      [
        "##肠胃建议吃火锅",
        "##时搭配清汤"
      ],
      [
        "##每天吃23",
        "##颗核桃"
      ],
      [
        "##直吹冷风头痛",
        "##时热敷太阳穴缓解"
      ],
      [
        "##手机入睡",
        "##困难"
      ],
      [
        "频繁吃甜食",
        "##口腔易生蛀牙"
      ],
      [
        "频繁吃辛辣",
        "##火锅肠胃易上火"
      ],
      [
        "频繁吃高油",
        "##零食胆囊"
      ],
      [
        "频繁吃生冷",
        "##水果肠胃易不适"
      ],
      [
        "频繁吃外卖",
        "##餐具不卫"
      ],
      [
        "频繁吃夜宵烧烤",
        "##血脂易升高"
      ],
      [
        "##搭配新鲜",
        "##蔬菜"
      ],
      [
        "##00温水白",
        "##天分810次饮水"
      ],
      [
        "##零食喉咙",
        "##易生痰"
      ],
      [
        "长期用空调",
        "##吹风口直吹面部"
      ],
      [
        "长期用嗓过度",
        "##咽喉经常干痛"
      ],
      [
        "长期用电脑",
        "##屏幕过亮"
      ],
      [
        "长期用冷水洗碗",
        "##手部易粗糙"
      ],
      [
        "长期用微波炉",
        "##加热食物营养"
      ],
      [
        "##耳道黏膜建议",
        "##每周清洁1次仅清理外耳道口可用棉"
      ],
      [
        "##伤肝建议戒",
        "##酒23点前入睡每天吃1把枸杞"
      ],
      [
        "##时间23点前入睡",
        "##每天吃23颗核桃"
      ],
      [
        "##餐具吃外卖",
        "##前用开水烫"
      ],
      [
        "##皮肤建议用",
        "##温水洗碗洗完"
      ],
      [
        "##皮肤测试",
        "##平时用淘米水洗头滋"
      ],
      [
        "##建议睡前3小时",
        "##不进食若饥"
      ],
      [
        "##每天喝玉米须",
        "##水利水通淋避免"
      ],
      [
        "长期吃辛辣",
        "##调味品胃部易"
      ],
      [
        "长期吃腌制",
        "##咸菜亚硝"
      ],
      [
        "长期吃油炸食品",
        "##血脂易升高"
      ],
      [
        "长期吃方便食品",
        "##便秘加重"
      ],
      [
        "经常吃油炸",
        "##零食喉咙易生痰"
      ],
      [
        "经常吃生冷",
        "##食物肠胃易腹泻"
      ],
      [
        "经常吃重口味零食",
        "##血压易升高"
      ],
      [
        "久坐不动",
        "##致下肢循环差建议每天做"
      ],
      [
        "熬夜加喝酒",
        "##伤肝建议戒酒23点前入睡每天吃1把枸杞"
      ],
      [
        "熬夜伤脑",
        "##髓建议合理规划工作"
      ],
      [
        "熬夜伤肝致色",
        "##素沉着建议23点前入睡每天吃1片维片"
      ],
      [
        "睡前进食",
        "##加重肠胃负担"
      ],
      [
        "睡前吃太",
        "##饱夜间易反酸"
      ],
      [
        "睡前频繁刷",
        "##手机入睡困难"
      ],
      [
        "空调直吹面部",
        "##致面瘫风险"
      ],
      [
        "##配合搓揉手脚",
        "##促进循环"
      ],
      [
        "##补充电解质",
        "##避免心慌"
      ],
      [
        "##室内空气",
        "##流通减少病菌滋"
      ],
      [
        "##及时排出",
        "##每天喝玉米须水利水通淋避免"
      ],
      [
        "##染发前做",
        "##皮肤测试平时用淘米水洗头滋"
      ],
      [
        "##咸菜腌制",
        "##超20天再吃每周吃咸菜不超1次"
      ],
      [
        "##每天做颈椎米字",
        "##操睡前用热毛巾敷颈椎10分钟"
      ],
      [
        "频繁熬夜喝酒",
        "##肝脏易受损"
      ],
      [
        "频繁熬夜赶工",
        "##记忆力下降"
      ],
      [
        "频繁熬夜皮肤易长",
        "##斑暗沉"
      ],
      [
        "##10次每天用热毛巾敷",
        "##眼10分钟滴无"
      ],
      [
        "1把蓝莓",
        "##补脑益智"
      ],
      [
        "1把菠菜补充",
        "##叶黄素"
      ],
      [
        "单侧睡觉致血液循环",
        "##不畅建议仰卧"
      ],
      [
        "单侧咀嚼伤咬肌",
        "##和颞颌关节"
      ],
      [
        "每天睡眠",
        "##时间不足6小时"
      ],
      [
        "每天喝很",
        "##少水经常喝碳"
      ],
      [
        "油炸食品含反",
        "##式脂肪酸伤血管"
      ],
      [
        "油炸零食生痰",
        "##湿建议少吃薯片"
      ],
      [
        "甜食致胃",
        "##酸分泌过多建议睡前4小时"
      ],
      [
        "甜食易致龋齿",
        "##且伤脾胃建议每天吃糖不超25克"
      ],
      [
        "生冷水果伤脾阳建议",
        "##将水果温一"
      ],
      [
        "##高油建议少喝",
        "##自制奶茶"
      ],
      [
        "##少量红茶不",
        "##加糖搭配燕麦"
      ],
      [
        "##增加饱腹",
        "##感"
      ],
      [
        "##增加建议调整",
        "##出风口方向"
      ],
      [
        "##电子设备",
        "##可听舒缓轻"
      ],
      [
        "##致肝郁建议睡前",
        "##冥想10分钟每天喝"
      ],
      [
        "##致肝气郁结",
        "##建议每天和家人朋友交流"
      ],
      [
        "##1113",
        "##点小憩20分钟补充"
      ],
      [
        "##1小时放下",
        "##电子设备可听舒缓轻"
      ],
      [
        "##气建议有尿意",
        "##及时排出每天喝玉米须水利水通淋避免"
      ],
      [
        "##社交活动散步",
        "##聊天疏解情绪"
      ],
      [
        "##按揉听宫",
        "##穴"
      ],
      [
        "##大声说话每天吃12颗",
        "##梨滋阴润肺"
      ],
      [
        "##肌肉紧张建议换双肩包",
        "##且重量不超体重5每天做"
      ],
      [
        "##手部磨砂",
        "##护理"
      ],
      [
        "##久坐压迫",
        "##膀胱"
      ],
      [
        "##胖大海麦冬茶润喉避免",
        "##喊叫和长时间说话"
      ],
      [
        "##2000分",
        "##多次小口饮用"
      ],
      [
        "##纤维食物每天喝",
        "##1杯酸奶调节"
      ],
      [
        "##咬肌5分钟吃食物",
        "##时细嚼慢"
      ],
      [
        "##崴脚后4",
        "##8小时内冷"
      ],
      [
        "##呼吸发声每天喝",
        "##胖大海麦冬茶润喉避免喊叫和长时间说话"
      ],
      [
        "##建议用腹式",
        "##呼吸发声每天喝胖大海麦冬茶润喉避免喊叫和长时间说话"
      ],
      [
        "##建议戒掉夜",
        "##宵每周吃1次清蒸鱼代"
      ],
      [
        "##每天按摩面部穴位",
        "##促进循环"
      ],
      [
        "长期单侧睡觉脸部易",
        "##浮肿"
      ],
      [
        "长期单侧咀嚼食物脸部不对",
        "##称"
      ],
      [
        "频繁掏耳伤",
        "##耳道黏膜建议每周清洁1次仅清理外耳道口可用棉"
      ],
      [
        "频繁掏耳朵耳道易瘙",
        "##痒发炎"
      ],
      [
        "经常穿紧身裤",
        "##腿部易静脉曲张"
      ],
      [
        "经常穿露脐装",
        "##腹部易受凉"
      ],
      [
        "缺乏运动下肢易水",
        "##肿"
      ],
      [
        "##15分钟每周参加1次",
        "##社交活动散步聊天疏解情绪"
      ],
      [
        "久坐致坐骨",
        "##神经受压建议每40分钟起身活动"
      ],
      [
        "久坐致肺功",
        "##能减弱建议每天做深呼吸"
      ],
      [
        "空调房不盖被",
        "##致腹痛建议盖薄"
      ],
      [
        "空调房密闭致异味",
        "##建议每天开窗通风1次定期清"
      ],
      [
        "1颗番茄",
        "##抗氧化敷补水面膜修"
      ],
      [
        "1杯蒲公",
        "##英茶养肝护肝"
      ],
      [
        "1个苹果促进胆囊",
        "##排空"
      ],
      [
        "久戴耳机伤耳窍",
        "##建议每天戴耳机不超过1小时"
      ],
      [
        "低头伤颈椎",
        "##建议看手机时保持平视"
      ],
      [
        "冷水伤手部",
        "##皮肤建议用温水洗碗洗完"
      ],
      [
        "功能性饮料含咖",
        "##啡因和电解质建议少喝改喝淡"
      ],
      [
        "勾脚运动各20",
        "##次睡前抬高双"
      ],
      [
        "午时不休",
        "##息致心率加快"
      ],
      [
        "单肩包致单侧",
        "##肌肉紧张建议换双肩包且重量不超体重5每天做"
      ],
      [
        "压力大经常",
        "##焦虑失眠"
      ],
      [
        "咸菜伤肠胃",
        "##且致癌建议自制"
      ],
      [
        "外卖餐具易有",
        "##细菌建议自备"
      ],
      [
        "夜宵烧烤致甘",
        "##油三酯升高"
      ],
      [
        "大声说话伤声带",
        "##建议用腹式呼吸发声每天喝胖大海麦冬茶润喉避免喊叫和长时间说话"
      ],
      [
        "奶茶高糖",
        "##高油建议少喝自制奶茶"
      ],
      [
        "密闭空间",
        "##致氧气不足建议每天开窗通风2次"
      ],
      [
        "少晒太阳易致阳气不足建议每天",
        "##910点晒背20分钟多吃桂圆"
      ],
      [
        "屏幕过亮伤视",
        "##网膜建议调至护眼模式"
      ],
      [
        "建议少吃",
        "##冰饮"
      ],
      [
        "微波加热致维",
        "##生素流失建议多"
      ],
      [
        "憋尿伤肾",
        "##气建议有尿意及时排出每天喝玉米须水利水通淋避免"
      ],
      [
        "方便食品缺乏膳",
        "##食纤维建议搭配"
      ],
      [
        "染发剂伤肝",
        "##肾且损毛囊建议每"
      ],
      [
        "每餐吃温",
        "##热主食如南瓜粥"
      ],
      [
        "油条摄入多吃",
        "##蒸"
      ],
      [
        "火锅辛辣刺激",
        "##肠胃建议吃火锅时搭配清汤"
      ],
      [
        "炖的食物每周吃1次深海",
        "##鱼降血脂"
      ],
      [
        "焦虑易导",
        "##致肝郁建议睡前冥想10分钟每天喝"
      ],
      [
        "煮梨每天吃200",
        "##克左右避免空腹"
      ],
      [
        "煮方式烹",
        "##饪食物加热剩菜时加盖"
      ],
      [
        "独处过久",
        "##致肝气郁结建议每天和家人朋友交流"
      ],
      [
        "生菜清热解腻",
        "##饭后喝酸奶护胃"
      ],
      [
        "用嗓过度伤肺",
        "##阴建议多喝麦冬胖大海茶润喉避免"
      ],
      [
        "白煮的食物饭后喝",
        "##小米粥养胃"
      ],
      [
        "白萝卜煮水喝",
        "##化痰祛湿"
      ],
      [
        "眨眼少致",
        "##干眼症建议每20分钟眨眼"
      ],
      [
        "睡眠不足伤气血",
        "##建议每天保证78小时睡眠中午"
      ],
      [
        "碳酸饮料伤脾胃建议每天饮水1500",
        "##2000分多次小口饮用"
      ],
      [
        "窗边吹风致头部",
        "##经络不通建议拉上"
      ],
      [
        "紧身裤压迫静脉建议穿宽",
        "##松棉质裤子每天做"
      ],
      [
        "红薯等粗",
        "##纤维食物每天喝1杯酸奶调节"
      ],
      [
        "红豆补气血",
        "##避免空腹运动"
      ],
      [
        "缺水致肠道",
        "##津液不足建议每天晨起空腹喝3"
      ],
      [
        "羊肉等温性食物",
        "##配合搓揉手脚促进循环"
      ],
      [
        "节食伤气血建议循序",
        "##渐进减重每天保证"
      ],
      [
        "花椒刺激胃黏膜建议",
        "##做菜少放调味品改吃清蒸"
      ],
      [
        "蓝光伤肝血建议睡前",
        "##1小时放下电子设备可听舒缓轻"
      ],
      [
        "走路看手机致平",
        "##衡失调建议走路不看手机"
      ],
      [
        "辣条多吃原味坚",
        "##果"
      ],
      [
        "过度节食减肥",
        "##容易乏力头晕"
      ],
      [
        "零食高盐",
        "##致血压波动建议少吃薯片"
      ],
      [
        "露脐装伤脾阳建议穿高腰衣",
        "##物腹部受凉后煮生姜"
      ],
      [
        "风扇直吹伤头部",
        "##阳气建议调至摇头模式"
      ],
      [
        "高油零食致胆囊",
        "##收缩建议少吃油炸食品"
      ],
      [
        "高跟鞋易致腰椎",
        "##受力不均建议每天穿高跟鞋"
      ],
      [
        "黄瓜条每天",
        "##监测血压"
      ],
      [
        "##用纯牛奶和",
        "##少量红茶不加糖搭配燕麦"
      ],
      [
        "##用冷热毛巾交替敷脸",
        "##5分钟缓解浮肿"
      ],
      [
        "##用活性炭",
        "##吸附异味"
      ],
      [
        "##红糖水喝热敷肚脐缓解",
        "##不适"
      ],
      [
        "##不吃甜食反酸",
        "##时垫高枕头侧"
      ],
      [
        "##肝理气配合",
        "##睡前拉伸放松身心"
      ],
      [
        "##每次1520分钟保持",
        "##室内空气流通减少病菌滋"
      ],
      [
        "##玫瑰花茶疏",
        "##肝理气配合睡前拉伸放松身心"
      ],
      [
        "##吃完甜食及时",
        "##漱口早晚用含"
      ],
      [
        "##时喝生姜红枣水热敷腹部",
        "##缓解"
      ],
      [
        "##音乐配合按揉",
        "##涌泉穴助眠"
      ],
      [
        "##音量不超60可",
        "##按揉听宫穴"
      ],
      [
        "##腿部拉伸运动睡前泡脚10分钟促进",
        "##静脉回流"
      ],
      [
        "##窗帘睡觉避免头部",
        "##直吹冷风头痛时热敷太阳穴缓解"
      ],
      [
        "##做臀桥运动",
        "##10次促进臀部血液循环"
      ],
      [
        "##猫式伸展缓解腰肌",
        "##紧张"
      ],
      [
        "##盐水或椰子水",
        "##补充电解质避免心慌"
      ],
      [
        "##或两侧交替睡晨起",
        "##用冷热毛巾交替敷脸5分钟缓解浮肿"
      ],
      [
        "##或加装挡风板",
        "##每天按摩面部穴位促进循环"
      ],
      [
        "##手及时涂抹",
        "##护手霜每周做1次"
      ],
      [
        "##上避免长时间直吹头顶",
        "##和后颈"
      ],
      [
        "##洗空调滤网",
        "##用活性炭吸附异味"
      ],
      [
        "##洗餐具选择",
        "##正规商家减少"
      ],
      [
        "##签轻拭避免用挖",
        "##耳勺深入耳道"
      ],
      [
        "##毯护住腹部腹痛",
        "##时喝生姜红枣水热敷腹部缓解"
      ],
      [
        "##亮度不超环境光每天吃1",
        "##个蛋黄"
      ],
      [
        "##走或慢跑增强",
        "##肺活量"
      ],
      [
        "##饿可吃少量小米粥或蒸苹果",
        "##避免油腻甜食"
      ],
      [
        "##训练10分钟每周3次快",
        "##走或慢跑增强肺活量"
      ],
      [
        "##距离15米以",
        "##上避免长时间直吹头顶和后颈"
      ],
      [
        "##靠墙夹背运动",
        "##放松肩背肌肉"
      ],
      [
        "##采用半卧位睡姿减轻心脏",
        "##压力"
      ],
      [
        "##年染发不超2次",
        "##染发前做皮肤测试平时用淘米水洗头滋"
      ],
      [
        "##留气孔减少营养",
        "##损失"
      ],
      [
        "##建议中午小憩15分钟",
        "##采用半卧位睡姿减轻心脏压力"
      ],
      [
        "##建议双侧交替咀嚼每天按摩",
        "##咬肌5分钟吃食物时细嚼慢"
      ],
      [
        "长期吹风扇直吹头部易",
        "##头痛"
      ],
      [
        "长期久坐不活动臀部易",
        "##发麻"
      ],
      [
        "长期看电子屏幕眨眼",
        "##次数减少"
      ],
      [
        "长期低头看手机颈椎",
        "##不适"
      ],
      [
        "频繁染发发质干枯",
        "##易断"
      ],
      [
        "经常用空调不通风室内易有",
        "##异味"
      ],
      [
        "经常吹空调不盖被子腹部易",
        "##着凉"
      ],
      [
        "##不超4小时回家后热敷腰部做",
        "##猫式伸展缓解腰肌紧张"
      ],
      [
        "缺乏开窗通风室内易缺",
        "##氧"
      ],
      [
        "缺乏社交情绪易低",
        "##落"
      ],
      [
        "缺乏晒太阳经常手脚",
        "##冰凉"
      ],
      [
        "频繁吃高油零食胆囊",
        "##易不适"
      ],
      [
        "频繁吃外卖餐具不卫",
        "##生肠胃易感染"
      ],
      [
        "##00温水白天分810次饮水",
        "##避免一次性大量喝水"
      ],
      [
        "长期用电脑屏幕过亮",
        "##眼睛易疲劳"
      ],
      [
        "长期用微波炉加热食物营养",
        "##流失"
      ],
      [
        "##餐具吃外卖前用开水烫",
        "##洗餐具选择正规商家减少"
      ],
      [
        "##建议睡前3小时不进食若饥",
        "##饿可吃少量小米粥或蒸苹果避免油腻甜食"
      ],
      [
        "长期吃辛辣调味品胃部易",
        "##灼痛"
      ],
      [
        "长期吃腌制咸菜亚硝",
        "##酸盐超标"
      ],
      [
        "久坐不动致下肢循环差建议每天做",
        "##踮脚"
      ],
      [
        "熬夜伤脑髓建议合理规划工作",
        "##时间23点前入睡每天吃23颗核桃"
      ],
      [
        "睡前进食加重肠胃负担",
        "##建议睡前3小时不进食若饥饿可吃少量小米粥或蒸苹果避免油腻甜食"
      ],
      [
        "空调直吹面部致面瘫风险",
        "##增加建议调整出风口方向"
      ],
      [
        "##咸菜腌制超20天再吃每周吃咸菜不超1次",
        "##搭配新鲜蔬菜"
      ],
      [
        "##10次每天用热毛巾敷眼10分钟滴无",
        "##防腐剂人工泪液"
      ],
      [
        "单侧睡觉致血液循环不畅建议仰卧",
        "##或两侧交替睡晨起用冷热毛巾交替敷脸5分钟缓解浮肿"
      ],
      [
        "单侧咀嚼伤咬肌和颞颌关节",
        "##建议双侧交替咀嚼每天按摩咬肌5分钟吃食物时细嚼慢"
      ],
      [
        "每天喝很少水经常喝碳",
        "##酸饮料"
      ],
      [
        "油炸食品含反式脂肪酸伤血管",
        "##建议减少炸鸡"
      ],
      [
        "甜食致胃酸分泌过多建议睡前4小时",
        "##不吃甜食反酸时垫高枕头侧"
      ],
      [
        "甜食易致龋齿且伤脾胃建议每天吃糖不超25克",
        "##吃完甜食及时漱口早晚用含"
      ],
      [
        "生冷水果伤脾阳建议将水果温一",
        "##下再吃如蒸苹果"
      ],
      [
        "##1113点小憩20分钟补充",
        "##精力"
      ],
      [
        "##崴脚后48小时内冷",
        "##敷之后热敷促进恢复"
      ],
      [
        "##建议戒掉夜宵每周吃1次清蒸鱼代",
        "##替烧烤降低血脂"
      ],
      [
        "频繁掏耳伤耳道黏膜建议每周清洁1次仅清理外耳道口可用棉",
        "##签轻拭避免用挖耳勺深入耳道"
      ],
      [
        "久坐致坐骨神经受压建议每40分钟起身活动",
        "##做臀桥运动10次促进臀部血液循环"
      ],
      [
        "久坐致肺功能减弱建议每天做深呼吸",
        "##训练10分钟每周3次快走或慢跑增强肺活量"
      ],
      [
        "空调房不盖被致腹痛建议盖薄",
        "##毯护住腹部腹痛时喝生姜红枣水热敷腹部缓解"
      ],
      [
        "空调房密闭致异味建议每天开窗通风1次定期清",
        "##洗空调滤网用活性炭吸附异味"
      ],
      [
        "1颗番茄抗氧化敷补水面膜修",
        "##复皮肤"
      ],
      [
        "久戴耳机伤耳窍建议每天戴耳机不超过1小时",
        "##音量不超60可按揉听宫穴"
      ],
      [
        "低头伤颈椎建议看手机时保持平视",
        "##每天做颈椎米字操睡前用热毛巾敷颈椎10分钟"
      ],
      [
        "冷水伤手部皮肤建议用温水洗碗洗完",
        "##手及时涂抹护手霜每周做1次"
      ],
      [
        "功能性饮料含咖啡因和电解质建议少喝改喝淡",
        "##盐水或椰子水补充电解质避免心慌"
      ],
      [
        "勾脚运动各20次睡前抬高双",
        "##腿10分钟促进血液回流"
      ],
      [
        "午时不休息致心率加快",
        "##建议中午小憩15分钟采用半卧位睡姿减轻心脏压力"
      ],
      [
        "单肩包致单侧肌肉紧张建议换双肩包且重量不超体重5每天做",
        "##靠墙夹背运动放松肩背肌肉"
      ],
      [
        "咸菜伤肠胃且致癌建议自制",
        "##咸菜腌制超20天再吃每周吃咸菜不超1次搭配新鲜蔬菜"
      ],
      [
        "外卖餐具易有细菌建议自备",
        "##餐具吃外卖前用开水烫洗餐具选择正规商家减少"
      ],
      [
        "夜宵烧烤致甘油三酯升高",
        "##建议戒掉夜宵每周吃1次清蒸鱼代替烧烤降低血脂"
      ],
      [
        "奶茶高糖高油建议少喝自制奶茶",
        "##用纯牛奶和少量红茶不加糖搭配燕麦"
      ],
      [
        "密闭空间致氧气不足建议每天开窗通风2次",
        "##每次1520分钟保持室内空气流通减少病菌滋"
      ],
      [
        "屏幕过亮伤视网膜建议调至护眼模式",
        "##亮度不超环境光每天吃1个蛋黄"
      ],
      [
        "微波加热致维生素流失建议多",
        "##用蒸"
      ],
      [
        "憋尿伤肾气建议有尿意及时排出每天喝玉米须水利水通淋避免",
        "##久坐压迫膀胱"
      ],
      [
        "方便食品缺乏膳食纤维建议搭配",
        "##芹菜"
      ],
      [
        "染发剂伤肝肾且损毛囊建议每",
        "##年染发不超2次染发前做皮肤测试平时用淘米水洗头滋"
      ],
      [
        "火锅辛辣刺激肠胃建议吃火锅时搭配清汤",
        "##锅底多吃白萝卜"
      ],
      [
        "焦虑易导致肝郁建议睡前冥想10分钟每天喝",
        "##玫瑰花茶疏肝理气配合睡前拉伸放松身心"
      ],
      [
        "煮梨每天吃200克左右避免空腹",
        "##吃"
      ],
      [
        "煮方式烹饪食物加热剩菜时加盖",
        "##留气孔减少营养损失"
      ],
      [
        "独处过久致肝气郁结建议每天和家人朋友交流",
        "##15分钟每周参加1次社交活动散步聊天疏解情绪"
      ],
      [
        "用嗓过度伤肺阴建议多喝麦冬胖大海茶润喉避免",
        "##大声说话每天吃12颗梨滋阴润肺"
      ],
      [
        "眨眼少致干眼症建议每20分钟眨眼",
        "##10次每天用热毛巾敷眼10分钟滴无防腐剂人工泪液"
      ],
      [
        "睡眠不足伤气血建议每天保证78小时睡眠中午",
        "##1113点小憩20分钟补充精力"
      ],
      [
        "碳酸饮料伤脾胃建议每天饮水15002000分多次小口饮用",
        "##可泡枸杞"
      ],
      [
        "窗边吹风致头部经络不通建议拉上",
        "##窗帘睡觉避免头部直吹冷风头痛时热敷太阳穴缓解"
      ],
      [
        "紧身裤压迫静脉建议穿宽松棉质裤子每天做",
        "##腿部拉伸运动睡前泡脚10分钟促进静脉回流"
      ],
      [
        "红薯等粗纤维食物每天喝1杯酸奶调节",
        "##肠道菌群"
      ],
      [
        "缺水致肠道津液不足建议每天晨起空腹喝3",
        "##00温水白天分810次饮水避免一次性大量喝水"
      ],
      [
        "节食伤气血建议循序渐进减重每天保证",
        "##优质蛋白如鱼肉"
      ],
      [
        "蓝光伤肝血建议睡前1小时放下电子设备可听舒缓轻",
        "##音乐配合按揉涌泉穴助眠"
      ],
      [
        "走路看手机致平衡失调建议走路不看手机",
        "##崴脚后48小时内冷敷之后热敷促进恢复"
      ],
      [
        "露脐装伤脾阳建议穿高腰衣物腹部受凉后煮生姜",
        "##红糖水喝热敷肚脐缓解不适"
      ],
      [
        "风扇直吹伤头部阳气建议调至摇头模式",
        "##距离15米以上避免长时间直吹头顶和后颈"
      ],
      [
        "高油零食致胆囊收缩建议少吃油炸食品",
        "##每天吃1根黄瓜"
      ],
      [
        "高跟鞋易致腰椎受力不均建议每天穿高跟鞋",
        "##不超4小时回家后热敷腰部做猫式伸展缓解腰肌紧张"
      ],
      [
        "空调直吹面部致面瘫风险增加建议调整出风口方向",
        "##或加装挡风板每天按摩面部穴位促进循环"
      ],
      [
        "单侧咀嚼伤咬肌和颞颌关节建议双侧交替咀嚼每天按摩咬肌5分钟吃食物时细嚼慢",
        "##咽减轻关节负担"
      ],
      [
        "甜食致胃酸分泌过多建议睡前4小时不吃甜食反酸时垫高枕头侧",
        "##卧减轻症状"
      ],
      [
        "甜食易致龋齿且伤脾胃建议每天吃糖不超25克吃完甜食及时漱口早晚用含",
        "##氟牙膏刷牙"
      ],
      [
        "冷水伤手部皮肤建议用温水洗碗洗完手及时涂抹护手霜每周做1次",
        "##手部磨砂护理"
      ],
      [
        "外卖餐具易有细菌建议自备餐具吃外卖前用开水烫洗餐具选择正规商家减少",
        "##风险"
      ],
      [
        "奶茶高糖高油建议少喝自制奶茶用纯牛奶和少量红茶不加糖搭配燕麦",
        "##增加饱腹感"
      ],
      [
        "密闭空间致氧气不足建议每天开窗通风2次每次1520分钟保持室内空气流通减少病菌滋",
        "##生"
      ],
      [
        "染发剂伤肝肾且损毛囊建议每年染发不超2次染发前做皮肤测试平时用淘米水洗头滋",
        "##养发质"
      ]
    ]
  }
}